/**
  ******************************************************************************
  * @file    network_data.c
  * @author  AST Embedded Analytics Research Platform
  * @date    Wed Aug  4 16:00:07 2021
  * @brief   AI Tool Automatic Code Generator for Embedded NN computing
  ******************************************************************************
  * @attention
  *
  * Copyright (c) 2021 STMicroelectronics.
  * All rights reserved.
  *
  * This software component is licensed by ST under Ultimate Liberty license
  * SLA0044, the "License"; You may not use this file except in compliance with
  * the License. You may obtain a copy of the License at:
  *                             www.st.com/SLA0044
  *
  ******************************************************************************
  */
#include "network_data.h"
#include "ai_platform_interface.h"


AI_ALIGNED(32)
const ai_u64 s_network_weights_array_u64[ 22925 ] = {
  0x3db407343d1523daU, 0xbc23061bbed3bc30U, 0xbe5cb1983e337999U, 0x3e06ca7c3e1f82e5U,
  0xbc078daf3d039811U, 0xbe7b44223e359fd5U, 0x3e5ef0bf3d333be7U, 0xbe0a55373dc9b56fU,
  0x3e43582abd918fb7U, 0x3e0c4bfb3cac4623U, 0x3e0184ca3d952444U, 0x3e2a52313d6847ebU,
  0x3df644823de68895U, 0x3caacbf23db40736U, 0xbe919be03d8fe431U, 0x3d8e49173dd5b30dU,
  0xbc7fb8263d146733U, 0x3e0bfc5f3e3d2851U, 0x3dc09cfe3e713255U, 0x3e89b150beae4bf4U,
  0xbea2b4aebd60d873U, 0xbe66b43f3e175024U, 0xbdfd86e8bed3ed3cU, 0x3d90176c3eb43d02U,
  0x3e23cfd03eb10480U, 0x3e73cd74be990e97U, 0xbf099ce0bd91e229U, 0x3e051c79bd00f86aU,
  0x3d6b8e2fbebaec27U, 0x3e4eb6a93dce36e4U, 0x3cdeb37bbc765ce7U, 0xbdb9a098bd611faaU,
  0xbe0e38bbbc95b870U, 0xbd67ea0abd8b6f6aU, 0xbd1ef498bde430f6U, 0xbe062425bdae0f21U,
  0xbbd4fca5be39fe8aU, 0xbcb7aeef3de849d9U, 0x3cdcc5793e604bdcU, 0x3d5590313dcd9a72U,
  0x3e69705abd0794c2U, 0x3c6956ad3e678e6fU, 0x3d966e8f3e6e621eU, 0x3d058658be64e6c2U,
  0xbeb1fbe1be99e631U, 0x3d3d89613db072a2U, 0x3dba0c463e3ac3bcU, 0x3dafeea13de319b9U,
  0xbe34acd5bd9899fbU, 0xbeb1931dbe55ff14U, 0xbee42e9cbef186deU, 0xbcb81b29be62d3eaU,
  0xbb6a65893c7e4ca6U, 0x3e9ad59a3e20dff3U, 0x3e1cfef43cd032c8U, 0x3dd0112abe8944f4U,
  0xbd5c994d3de5a7d1U, 0x3e0369a2be48d2f1U, 0x3d373f983e45ca9aU, 0x3dfd7a183e875b9eU,
  0x3d89aa47bdf92b50U, 0xbedfdd2c3e3e9079U, 0x3e2d2bafbe2dee25U, 0x3dfad524be853ea7U,
  0xbe95327f3e7a3d65U, 0x3e74a86ebd759e1aU, 0xbe13bc61bdf35e87U, 0xbdcee8183e4ca082U,
  0x3ece42d23d6588b8U, 0xbe428437bdc6ad8cU, 0xbe70cd703e94c506U, 0x3cf8c806beb1ccf0U,
  0xbe00d5f9be8a429aU, 0xbed0d1e03d60a4a9U, 0x3e811233bd70186dU, 0x3e481060bc5c763cU,
  0xbe4a7dcb3e836191U, 0x3d3e085bbe4c4febU, 0x3e852dac3da1df77U, 0x3ddefc8d3e81fd5aU,
  0xbe8580c2be017677U, 0x3e45c44c3bcdd64eU, 0x3dd86ab63d9c094cU, 0xbe4e66863e333a85U,
  0x3cc2b1bdbdd3a6d8U, 0x3e9bab8abe086bc9U, 0x3eb15c133e5d0a82U, 0xbd54d848be08d8f9U,
  0xbdd3fb6f3d65beb8U, 0xbebb977dbeb628a8U, 0xbe7afb0ebab4a73cU, 0x3d9b463abea3edb3U,
  0xbe626a953d40e544U, 0x3e5ea6693e98f088U, 0x3e14dbda3de585dcU, 0xbdcef457be108ab9U,
  0x3d002c153de3819bU, 0x3e3bd939be95854aU, 0x3e08d6cb3d9f60f9U, 0xbe763cedbe3bc8f1U,
  0xbd930e3a3b961c83U, 0x3c2ef9d5bd3d0886U, 0x3e85465a3e880a2fU, 0x3d8bf89c3ba622e5U,
  0x3e40e8ee3e326353U, 0x3df27ba53e4ac9adU, 0xbe3dc7fa3e5c839dU, 0xbe57b19fbe573b74U,
  0xbdfdd489bd44dd5fU, 0xbbf5ec5f3e0af04bU, 0x3e2f45443de2f0e5U, 0x3dca3039bd2c3197U,
  0x3e11f4c2be07cad2U, 0xbd1213863cc2bbb5U, 0x3e07665d3e4aa7f1U, 0xbeb726333d63c6bdU,
  0xbc903257be143afdU, 0x3d79a7eb3e167979U, 0x3bfede2ebe57302cU, 0x3dbe55f93d835e76U,
  0x3d5d9e2e3d824644U, 0x3e06c20c3d18c60fU, 0xbabb49953e8d3084U, 0x3da0641ebe12d64bU,
  0xbecda6993e1ac73aU, 0xbdc37f58bd570db4U, 0xbe099d15bddd088dU, 0x3d55ad44be4f90fbU,
  0x3dd013843e649eacU, 0x3d81dd32bd046c33U, 0x3c4214da3d7ba843U, 0x3e8ea8a13e1678e6U,
  0xbe631e8bbe4c7735U, 0x3e20eb96bec2acd5U, 0x3d30535f3ce8d4daU, 0xbeb0af3abe07ab39U,
  0x3dddfb85bea41e66U, 0x3e388427bc3c3cd4U, 0x3e626a2a3e1bbcfbU, 0x3ddc77383e162d13U,
  0x3bef7d03bd609528U, 0xbe10ec5c3d8b29aeU, 0x3e0629893c6dfeadU, 0xbb7dfb5e3bc384f1U,
  0xbdaa818bbd03a95dU, 0xbd78bf61bd85f1aaU, 0xbcbe22c73d892e62U, 0xbd2afdabU,
  0xbbfb641ebdc3f2b7U, 0x3e293c3c3aafd549U, 0xbd4be10fbdfb25c4U, 0xbada007cbd113a05U,
  0xbc9ad2e8bc7b0e8aU, 0x3d270896bcd31846U, 0xbdb169a33c1ab221U, 0xbc3d9096bb3d13f2U,
  0xbaf07c26bd5badf5U, 0xbc40de2bbdae3206U, 0x3cf3dedf3bfc4852U, 0xbdce3fdebb9dfc1cU,
  0x3daf2e793e0e82f5U, 0x3e067655bc759460U, 0xbdba17413c96ae9fU, 0x3d54e1da3e01ae8dU,
  0xbdf8ed813d1e850cU, 0xbd9b30c63ccd51b9U, 0x3d1d433d3d8be16cU, 0xbd79a6ccbdba0a45U,
  0xbdaa9fa2be209c5cU, 0xbd5f34be3c43ad67U, 0x3be9ff0f3d942bdbU, 0x3b8709d3bd3a40f5U,
  0x3c5b50bf3b1ec40bU, 0x3d9f5d333d6c3ab5U, 0xbd12b71c3d342941U, 0x3dae0829bd7cdc0dU,
  0xbdb9f57abab7271fU, 0xbccd407cbd8510e9U, 0xbd2fde2d3c26c350U, 0x3d50c05abdcc5d24U,
  0xbcd8ad5fbd69e9b5U, 0xbc8e24fabe3c14feU, 0xbe1c3d69bd94972cU, 0xbe0ca798be40ba82U,
  0xbe19e910be1f723dU, 0xbcdec5fabde35c24U, 0xbced35e83e682810U, 0xbe55e59a3e223676U,
  0xbe132801be13477bU, 0xbdc19e783c4df779U, 0x3c25f6633b3ce676U, 0xbd8a540a3a6bb423U,
  0xbcf2fe9cbe2c4353U, 0xbe4ebb24bdfa5225U, 0xbd4961aebd44acd5U, 0x3d6c41a6bda1de78U,
  0xbe202e96be7bc4e8U, 0xbd8a50abbe33d995U, 0x3dbd5a7cbe27fe45U, 0x3eaa53e73dd3c883U,
  0xbe383a3b3c9d2147U, 0xbc57611abe7c3b09U, 0xbe268c7a3ce4d253U, 0xbe6464e7bddc16b4U,
  0xbe35cfbabe128076U, 0xbe28d45abe666bc8U, 0xbd2e8729be4492c4U, 0xbdeb1fc8bd985637U,
  0xbc8be2213d4093c2U, 0x3c83c6593c543a3aU, 0x3d54f841bcbd34ecU, 0x3d8c9f453d91b7c7U,
  0xbcfd44f93d3344caU, 0xbc8e9fd53c87af28U, 0x3e04798c3aeec754U, 0x3deb542d3d277479U,
  0xbd133d1c3da05b57U, 0xbe7b89263d2f3e6bU, 0xbd800996bc5d3dd7U, 0xbd0a05bdbbc1654aU,
  0x3b80dfd7bd152e92U, 0xbc74f5993dce9505U, 0xbea458093e058d93U, 0xbd4dc4f4bdcb0148U,
  0xbbbcecd23e0a171aU, 0x3deab7903d854606U, 0x3da590033e0cab77U, 0x3cb5c8003d327986U,
  0xbc268a2b3c49f20eU, 0xbd9f2783bddf55bdU, 0xbdb26d3e3dab54a1U, 0xbd4af1e33d3d3754U,
  0xbd43d384bd8fc9fdU, 0xbdab45f8bd7dbe35U, 0x3d2bf8f43d02cb01U, 0xbd9e5d6fbd0eff46U,
  0xba333a263d1c83bbU, 0x3aac63c0bcb7b1c2U, 0xbe3cdd3b3c5da4b3U, 0xbd13398b3a470a4eU,
  0xbdb9186bbd353cdbU, 0xbe0b64f2bdebfd16U, 0x3d326e963e223e6bU, 0x3d9b7533bd777648U,
  0x3ca2aca7be2225f8U, 0xba11d30dbe027ee2U, 0x3dbc5e20be354d41U, 0x3eab5df33db93838U,
  0xbdaa779dbd9fa08bU, 0xbdb6c494be2e9224U, 0x3bbbfbb9bcd5d958U, 0xbe5d96423ccdbd2cU,
  0xbe483c78bc98f8beU, 0xbddb2d25bddf2e6bU, 0xbd7a649ebd8197c8U, 0x3d178a7dbe243e49U,
  0x3debc5933d0054a3U, 0x3d7dba5a3dd451acU, 0xbc3aeb613e1ba8c1U, 0x3beb67b03c55e9eeU,
  0xbd092c6a3ae84159U, 0xbd9212c7bd14cb00U, 0x3c53beec3d25ac93U, 0x3df6f89d3e398b0aU,
  0x3d1afa623d43d252U, 0xbe13a0e33df9c650U, 0x3da10cdf3b9f648dU, 0x3d411b06bd1163c7U,
  0x3b19750c3da9d7bbU, 0x3d18db2c3b1cfc89U, 0xbe2e8dec3d1d73a9U, 0x3df35586bdeaa824U,
  0xbd6e7df83e2796d2U, 0x3c9b24333d687acdU, 0x3e2c343a3e384795U, 0x3d66cc5a3de37395U,
  0x3dce39c93dd4ac16U, 0xbe0f841dbd0c3853U, 0xbe40ee8bbce45349U, 0xbba83e01bc936063U,
  0xbdb51292bdd1365dU, 0xbdc7ec6a3d8bb73cU, 0x3dc7e5d03d25edacU, 0xbc53ef8cbd8f84f3U,
  0x3d300b3e3d1f24f8U, 0xbd5b844e3d80095dU, 0xbe8c96a33cf2522dU, 0x3de216f6bcfa0203U,
  0xbd947c093d23c7b5U, 0xbd8cedb4bd1ead76U, 0x3c9afcf73e4c0276U, 0x3d2e0e96bb054daaU,
  0x3d2c3b04bdb415a3U, 0xbd855a4dbd3f1784U, 0x3b9a7b5ebd92fc8dU, 0x3e7e86043d5ac06aU,
  0xbe00b26f3e09e145U, 0xbde1d3bbbbd4fea4U, 0x3de5a774bda62d0fU, 0xbd8ad5dcbc88d6a8U,
  0xbd856a79bae6a02fU, 0xbd5ac329bd7ccea3U, 0xbd5bd528bd951426U, 0xbd62793ebc8fb529U,
  0xbdbc2ba63dd8d4e7U, 0xbd31447c3d88d473U, 0x3d680a18bd1a7042U, 0xbd571d90bd1cec26U,
  0xbd0a04abbd356f3dU, 0xbd3056df3d7498a8U, 0x3c6d4517bd7b2c4fU, 0x3d80d7f1bd8ca18eU,
  0xbd18b460be757b91U, 0xbcefe52c3d16f039U, 0x3d3d7c04bd2c618aU, 0x3c48721ebe33acbdU,
  0xbdacd6943c49669fU, 0xba9e73fa3de26963U, 0x3cc7d92b3d40484aU, 0x3acb6972bcfa5941U,
  0xbe15476bbe1f5c13U, 0xbe3d3ba8bd11759dU, 0x3d94a8f1bd1f016eU, 0xbd8a1250bd364e32U,
  0x3cf89aefbe5169f2U, 0x3d414e11bc93fea8U, 0xbdf70423bddb4bdfU, 0xbe17da42bde183a1U,
  0xbe872528bc92f225U, 0xbd46ec3abd016becU, 0xbd2fd5b9be00c148U, 0xbd9643ccbe370cdbU,
  0x3cb092f03bbec2d5U, 0xbd92ed1bbd918beaU, 0x3daa9767bdb248a7U, 0xbc215873bda19835U,
  0xbd40a628bdab910fU, 0xbd5417fa3d94cc1bU, 0xbe0cd609be5c1220U, 0xbd8b217ebdc66c4cU,
  0xbe0eca8cbd981ab5U, 0x3d15e1d53d02ae62U, 0x3c07a97fbb32cddaU, 0x3de1de423e141922U,
  0xbe10f9863db0bcacU, 0xbdb42332bcee07bbU, 0xbde21f89be266828U, 0xbdf3ef2a3c053d99U,
  0xbcaac118bcb6730cU, 0x3cebaed43cc3b873U, 0xbd3fa5ac3d047fc1U, 0x3cc719c83c564a34U,
  0x3c1a93c43dcea75bU, 0x3ca55defbda82bf3U, 0x3de25c5b3e3ebd75U, 0xbcaaa5c03da09973U,
  0x3e1c10eabdc0f3beU, 0x3ca2389939818dabU, 0xbdcedb1e3d28b7ecU, 0xbd95f9bcbddba0c2U,
  0xbcca9754bd3e61caU, 0x3b962af53e18577cU, 0x3cc11043bc911509U, 0x3d508522bdc1c296U,
  0x3dbbb5e6bd9c52a3U, 0xbdef34f53d2e74a5U, 0xbda340953cd35357U, 0xbdc46390be0844f7U,
  0x3c668d33bd500fc7U, 0xbd075314b9146d50U, 0xbe881e5fbde37c1aU, 0x3d830bddbe1d25ddU,
  0xbd9f4f55bdc354beU, 0x3de650b2be23b286U, 0x3c0367573bba6138U, 0xbd57c54abd6cf41fU,
  0xbdd7fb203d5c86c9U, 0xbe53bd21be48b433U, 0xbe32044bbe15a757U, 0xbe3b86dcbd63f68fU,
  0xbd32075dbe0e9c81U, 0xbe046111bd52c7d5U, 0xbd51f6e03c092cc6U, 0xbd00db5e3d694187U,
  0xbdea7d7dbe074815U, 0xbdc0ac6c3d84f1eaU, 0x3e49d6ad3dcbd3bcU, 0x3d7824f6bdbfe9f4U,
  0x3dc9f2ac3c858af1U, 0x3c5688a83c4a672aU, 0x3d2a491dbda6832aU, 0x3c99a8543d95f650U,
  0x3d3f99633e168656U, 0xbe6fba633da5f0b4U, 0xbdbf82f5be0d608bU, 0x3d070747bd282622U,
  0xbe01b18e3e01b260U, 0xbcc455d53c83db9fU, 0xbe5718e63b5e4f9eU, 0xbd8bdf823d327c5bU,
  0xbd08e6a3be55a4a9U, 0xbd387994be133c81U, 0x3dae0ff73e563f43U, 0xbcfb9df6be32f3abU,
  0x3daf25bfbc94645eU, 0xbc4a2d1abd7a6fbfU, 0x3d52179cbd8da42aU, 0xbbc560333ce5c6a6U,
  0xbe7bfb3cbcc01ac2U, 0xbd0926a9bd28253eU, 0xbe2a80cdbdde1ea4U, 0xbc718354be305393U,
  0xbdadb433bdc1e36eU, 0xbdb02183be2643ecU, 0xbdff62363cd2b27aU, 0xbe1415953c35f3daU,
  0x3d50f2273b14abffU, 0xbc8bd6e93d20ee9eU, 0x3d53fc7ebcbc102bU, 0xbc09be28bd38cc20U,
  0xbd3240f23d81f431U, 0x3de654033d316209U, 0x3e00a344bd78f5cbU, 0x3c80f1273d78a9dbU,
  0xbdb0db213db7e1afU, 0xbe85cb55bdad4d6dU, 0xbdb6a791bb763761U, 0xbda033a53d84e792U,
  0xbdb78ae43d620c4bU, 0xbda4b3183b3dbfacU, 0xbe0a5b4cbbfeb567U, 0x3d1cd0003c5cb316U,
  0xbc8f975a3d84e869U, 0xbcd4538c3df3465cU, 0x3e9479663e830451U, 0xbd94fb4ebdc10dc9U,
  0x3d6e98d93dd40b05U, 0xbe6e79ee3d70e6eeU, 0xbda2795fbd872663U, 0xbe43d02c3dff2b1dU,
  0x3db063283d8c7cd2U, 0xbd8fbd6b3c2553beU, 0x3d0a2b31bb344c59U, 0xbc11ea7b3d3db9d9U,
  0xbc1aa6253d032a90U, 0x3bf15a24bda81c9cU, 0xbe2f5c2ebd227d6aU, 0x3c6e8eefbdc89b17U,
  0xbe0b47c0be3148a6U, 0xbdaaed7dbe51a814U, 0xbec6f89fbdcc4c2aU, 0x3d0dd44abe1aca30U,
  0xbe94666abd8f4569U, 0xbd7f9c68bdc27820U, 0x3d6a91a2bcd1d86dU, 0x3e95b0f13e2f6393U,
  0x3bd4455b3ce38b55U, 0xbd4d0d72be15b877U, 0xbe3106e5be5f2309U, 0xbdbbd086be41f3d1U,
  0xbd5b21793c377910U, 0xbd4b53aebe19ddddU, 0x3d072e41be06feb3U, 0xbdf7fbe0bec131e7U,
  0xbd23c5e1be61f22fU, 0xbd76b9c3bcd4ac3dU, 0xbd5077b7bd2bf02eU, 0xbd1fe4ebbd0a2ed5U,
  0x3c886c353de74497U, 0xbdb241413dc938a7U, 0x3e0def523be2660dU, 0x3e9132e53da34ae0U,
  0x3e6553083d8b5475U, 0xbc9fdd323d48fa44U, 0xbd27ae08be392de8U, 0x3e242d52be0dfc56U,
  0x3d938ef53e08f5caU, 0x3c9d2767bda04039U, 0x3d4ef753bd3f3a3aU, 0x3d06da03be7ba636U,
  0xbdbef3c4bdc9359dU, 0xbd69de92bd874721U, 0x3e1c13e23e2ad89cU, 0xbd434246be634b4eU,
  0x3dddbea03d9a7346U, 0xbd8f1bb63dbadba9U, 0xbd65257b3c24cbc0U, 0xbd7203a2bde6a89eU,
  0x3d6db4c2bd7dd37aU, 0x3dd3434a3e31fa55U, 0xbd2b9d0ebe934086U, 0x3d5f32edbdebb2dcU,
  0x3de070a63dcebf16U, 0x3e0c92ecbdf216b0U, 0xbe499df1be4af8e0U, 0x3d263092bea5db56U,
  0xbd44d778be0ad412U, 0xbdf325cebe3172e5U, 0xbed43b59bec9de4fU, 0xbd37fe20bd184ce7U,
  0xbee631cabd740a90U, 0x3da59059be1b15c5U, 0xbe88d85f3b659c8fU, 0xbe240b1dbe734465U,
  0xbd83fc003bb4a1c0U, 0xbdfb9c3bbe7274d6U, 0xbe14ae633c043648U, 0xbe4d0696bcfde513U,
  0xbe6c7571be6b8793U, 0xbe2b8dcebe097f28U, 0x3e099d58bcbf7697U, 0xbe33632a3db0ca1eU,
  0xbe28f7a4bd833612U, 0xbd8d86b6bd590a6dU, 0xbe9ed6b1be43934eU, 0x3cb5ee6cbcea6b54U,
  0xbe523944be1adc38U, 0xbc3af750bd9d21e5U, 0xbda705efbe266d7bU, 0xbd40d15dbdf18332U,
  0xbc91110abd8c81aeU, 0x3daed85fbe53f0a9U, 0x3c7d90683da86802U, 0xbe2332093dcb418aU,
  0xbdeb17c8be595aebU, 0xbd07b42dbda85804U, 0x3e9f7d32bd3b2cd9U, 0xbdfaaae23e406380U,
  0xbe085570bbe2367fU, 0x3c9f8568be0f3a04U, 0xbe624fa1bea81597U, 0xbdaa6fa3be4719dbU,
  0xbdeb7419bca5e3edU, 0x3d81892cbe3b62feU, 0xbda9f71dbd9b7dafU, 0xbe3404e6be806d59U,
  0xbde55a42bd26a973U, 0x3da31b0abd2827bfU, 0xbe02997dbcdf4c22U, 0xbd080a803d913e21U,
  0xbddb7728bdf29d23U, 0x3c60628bbdc4625aU, 0x3e5344763cd249c9U, 0xbe1bd9c13d906984U,
  0xbd1c4eb43d3e7f48U, 0x3daada903d89b8deU, 0x3e4f12a7bd0abfc7U, 0x3d835b293ded7c98U,
  0xbb2d239d3ddbe3acU, 0x3dbaf86dbd87f405U, 0xbda4089d3d63b182U, 0xbdca0e5fbcfb60afU,
  0x3e5676f63d967047U, 0xbe1e8df73c2375dfU, 0x3d8762363d066ca9U, 0xbcd714e83e092bd1U,
  0x3bcbb6c03d9fa88eU, 0xbdc71c343d4ef92fU, 0xbd58e0583d67e667U, 0x3c40eaf03d29a166U,
  0xbbf9440cbca1884dU, 0x3e09542f3babaacdU, 0xbc0ef5d7be83f571U, 0x3cf90d143d5b0b47U,
  0xbdae14943d3762e7U, 0x3ddefaf13e02d7a3U, 0x3dc2a007bc3d26beU, 0xbda5855dbdb4b09fU,
  0x3e13e6623d4018b5U, 0x3d16140dbd8ceb68U, 0x3d941c6d3d863d52U, 0x3c3349813ca305fbU,
  0x3e16f341bc6eff78U, 0xbc9478c73d9cb02cU, 0xbd065387bb667cdfU, 0x3d44f1993d2f9e48U,
  0x3d9d8b673e04e655U, 0x3ddeabcf3da2f2e2U, 0xbc442c12be823fe2U, 0xbc922e403d9cda83U,
  0xbd571fdd3d412899U, 0x3dcefe1d3d9e273aU, 0x3cd3d4f43ce9e163U, 0xbdfa3a74bd1ec937U,
  0x3e4352663dbbd84eU, 0xbc8532e8bd4988e7U, 0x3ccc97943e00b2d3U, 0x3d49dd123e1a9c90U,
  0x3dcfcd33bccb7e1aU, 0x3d1744793d499a29U, 0xbd2b5f1e3dfe7961U, 0x3e00ef463ddb384bU,
  0x3d02f29bbdd190e7U, 0xbb8941073d2fceecU, 0x3e2880b83b8637cfU, 0x3ce88b00bdd629cdU,
  0xbd405ec53d412ae4U, 0xbe62cbf53e01f9baU, 0xbcbfc948bcd7aaf5U, 0xbc47a201bcb3750aU,
  0x3dc00ad8bd5b376aU, 0xbbfe325c3da856f8U, 0xbd423236be327b7dU, 0x3d4941cfbcba4866U,
  0x3d6bb2a23d7b86dbU, 0x3d266963bd2f1b54U, 0xbdedc4de3c2d3c96U, 0x3c8b611ebdc5fcc1U,
  0xbc70ed4dbb5d6cfaU, 0x3d6795bcbd38c1ccU, 0xbc18cddfbe30405bU, 0xbd855c933c995e96U,
  0xbd85a600bdd042f0U, 0xbe86a09cbd8f4d9dU, 0x3dafb0343c12960fU, 0x3d6b112f3c70f078U,
  0xbdd72e11bd7388baU, 0xbd584de13d0bf940U, 0x3cafe72cbe5c089eU, 0xbcae1b0cbe89609eU,
  0x3c857c18bd2d07c3U, 0x3df410b53cc3e0f5U, 0xbe51b463bd8dcd0dU, 0xbd02b7a8be28e11bU,
  0x3d14df193d1cde85U, 0x3cf934603abe40aaU, 0x3e79f9ef3dfad545U, 0x3d92ce3dbab64988U,
  0x3defcff53daee3beU, 0xbe3da0c43d8bc5c9U, 0xbcced324bcde08e4U, 0x3dac51c3bc3eee45U,
  0x3c552fc83acbb0d8U, 0x3db42c1f3debc176U, 0x3db79b37bdb63e65U, 0xbc7b5bb9bd47d929U,
  0xbe0fff883e0062c5U, 0xbc34ec02bd178b07U, 0x3e4d36b1bd6ea8cdU, 0x3d9f2af4bd5a59fbU,
  0x3cc59554bccfde26U, 0xbd2bafc9bd341d1eU, 0x3e162b533e42ada3U, 0xbcf38700bc6d1108U,
  0x3d9a5f323d58c19eU, 0xbe31b7ea3db90025U, 0x3b4d4a5e3ca09e70U, 0x3e058b3a3cc9aca9U,
  0xbd6b0767bda50b24U, 0xbd2722fc3d5ee816U, 0x3d594a7dbdc76469U, 0x3d26d894bdee9a05U,
  0x3d413e66bd54534aU, 0x3cfc998bbcfd7ffbU, 0xbe684bb6be04ca2dU, 0x3d2ad406be5beb00U,
  0x3d4a20dbbc516692U, 0xbc0d30e8bb37fedfU, 0xbdfa4be2bd9d1611U, 0x3c7936803d67a964U,
  0xbe0bb809b76ffa40U, 0xbe9c97a7bd90b2ffU, 0x3e15d9ae3d962a91U, 0x3e14094c3d13c131U,
  0x3cbd5f45bbcfb24aU, 0xbe5e782e3d742201U, 0xbb8c7b55bda7de63U, 0x3d480165bdf3c72cU,
  0xbd81849f3d158b30U, 0x3d9f77303d47fb2dU, 0xbe7f6d33bd18d0bcU, 0xbce23aa9be76c64aU,
  0x3d238d943dd84a50U, 0x3d61d0ccbd7c277aU, 0x3dcb2e163d0568dbU, 0x3ba3a9d03cf1209bU,
  0x3cc702de3cf381ccU, 0xbeb1c2913d0b52b7U, 0x3d0204a13e070efdU, 0x3dbbc628bd96c2f8U,
  0x3d4de705be0895efU, 0xbdf7ba3abd136ad4U, 0x3e069e8f3ce219f2U, 0x3c60af423cb34723U,
  0xbe1452e63d56637dU, 0xbd61d3f03e0556eaU, 0xbe08bd7fbd0c990eU, 0x3d9434563ca79a43U,
  0xbe10aabd3dc71823U, 0xbc2106d9bd9196f0U, 0x3e1397903e14ef77U, 0x3b9257503d166bc2U,
  0x3cc138523d58d678U, 0x3cea4b923cc7ec68U, 0x3be3a5fcbde1451eU, 0x3b22e5b0bd25d133U,
  0xbcd2e3ef3dadf41bU, 0x3d956785be09bc36U, 0x3da9104a3e0d67f7U, 0xbe00732a3ce894d6U,
  0x3c82fbd5bdae72b4U, 0xbda03e003d01901cU, 0x3d8911093d48fde1U, 0xbc5cd2ac3e1d0541U,
  0x3d53cc373db11a5cU, 0x3cde44343db0ea6eU, 0xbe1a153fbdba44d6U, 0x3d385dc63d1ad127U,
  0xbdd0aa20bc99424bU, 0xbe65de64bda39f84U, 0x3ce98ebbbccd1e47U, 0x3d59499a3e4ed8a5U,
  0xbc32caaf3d254b25U, 0xbdff9e193b4bfd8cU, 0x3c12a515bd36bb7dU, 0x3cf5b2e2bd2ec002U,
  0x3d7cd068bd141517U, 0xbd727e7f3d42b3c9U, 0xbb5d70f4bdc48964U, 0xbc3f67d3ba91c032U,
  0x3deea91a3cb35704U, 0x3e16c6d73d5e85a6U, 0xbc126778be59fa60U, 0xbd8971633e04ebdeU,
  0xbd81b22a3c6ee32dU, 0xbef1eacb3dd55e93U, 0x3df84df03cc1255bU, 0x3e19cd9a3deb7d42U,
  0x3d017b4cbdea5160U, 0xbd1722c0bd8672d7U, 0x3cb8d4033dc53e8aU, 0xbb488338bbaff631U,
  0xbd3e1b293df5f834U, 0x3de2bb563bbde04dU, 0x3c5d27cebc966a51U, 0x3d733ab53c916650U,
  0x3bae63e3bd951b2aU, 0xbe20a2c3bd16159eU, 0xbe316822bdf09b40U, 0x3d9e2299bd48eefeU,
  0xbdb35bbbbe038c5dU, 0xbd50f386bd34206eU, 0x3df894bb3ca4abf2U, 0x3dd9c00b3d9514c5U,
  0xbe000279bce59670U, 0xbcdcc403bd8acdfbU, 0xbe36c6eebe451c1dU, 0x3ddd42afbe29c410U,
  0xbd2249efbd29764aU, 0x3d56cbd9be050f7fU, 0x3daa6291be49a107U, 0xbda17014be472fd3U,
  0x3c907600bdc0c3a3U, 0x3da656133d05566eU, 0xbe196a9bbe08dcc3U, 0xbd3c7bf0bcea6c4cU,
  0xbdb12b82bdba764eU, 0x3cb0911bbdd4c697U, 0x3d04e468bb85aae5U, 0xbc3ec7a73d4b1124U,
  0xbc19336cbcbabb4bU, 0xbce2b9593c8eafa1U, 0xbdb3feaabd176396U, 0xbc0fa3c5bdabab57U,
  0x3d80736abb2934a9U, 0xbd13dc8dbc738aebU, 0xbe000b2fbd42ce95U, 0x3d9f52b03d1fa614U,
  0x3d81500f3db86a11U, 0xbd00ae9abd474a07U, 0x3c506046bdcee0bbU, 0xbc5d45d83db72da6U,
  0xbdf6ed50bd513d8bU, 0x3dab20f13a3a896eU, 0x3caf242c3e020fcfU, 0xbd97a5f6bd74369fU,
  0x3cb50c3bbd933ad7U, 0xbd1622083d5d59baU, 0x3d82b56b3e5d80c1U, 0xbb0aff4a3d30fbf0U,
  0x3d3224e23da85d37U, 0x3d19e2163d095d6eU, 0x3d85d3c83db1edf0U, 0xbda5ea813dd75457U,
  0xbe745e4abdcbe2b1U, 0xbe2d33d5be06cc83U, 0xbe8698c0be2c6087U, 0xbcbfbd2cbe5b165aU,
  0xbe944d7abe55b315U, 0x3c997fd7bdc5e205U, 0xbdfd5e9fbe5ac297U, 0x3c8a341d3d036e13U,
  0xbe071985bb054a64U, 0xbc44a779be318f47U, 0xbdb7873bbd20d02dU, 0xbe14b6e63d88e400U,
  0xbdb0128bbdcd4f2eU, 0xbdb51f44be50df69U, 0xbca37ebfbdde34bdU, 0xbdbfb05bbd2a2d4bU,
  0xbdb1931abd8ced6dU, 0xbe2e59fd3c26f12dU, 0xbe5c084abe08d30fU, 0x3d522b86bdf701c3U,
  0xbe7141babdf5ab9dU, 0xbe3690113ceb51d2U, 0x3d9778f3bd0948eeU, 0x3e0663a13d8331dcU,
  0xbc7389f3bd27ae14U, 0x3d079ccfbd986604U, 0xbccaeeefbd7747f7U, 0x3d554debbd4e7ebeU,
  0xbc6424a7bc33929bU, 0x3c29fd59be202708U, 0x3d6eed26bcfa54f0U, 0xbdc1cc68be058ee0U,
  0x3e3d06063e2f6ca5U, 0xbc1b4e763d98aa8dU, 0xbe02db41be46e1eeU, 0x3caf09ac3dcb6aeaU,
  0xbd4aecb3bc854d4dU, 0xbe44d935bd5bd57dU, 0x3e4542f13e468926U, 0x3e45aed73e2e7585U,
  0xbe05306d3d68ef33U, 0xbcf836853d48a3a6U, 0x3ddb56fd3d0a7d50U, 0xbc3c0773bc9ce145U,
  0xbd2319e1bd47bf39U, 0x3ddf15863e06e59dU, 0xbc6c01b03d9e7519U, 0xbd1c0ffe3d1bc7a0U,
  0xbce8f9003dc23fa0U, 0xb8c21f01bdb296f3U, 0x3e09df563dc2769cU, 0x3baf1ed03d8e0589U,
  0xbd00d3ab3dbd5c98U, 0x3df113b1bdb62c7bU, 0xbe2c5e333cede9cfU, 0xbe956c70be67cf04U,
  0x3e3a90f5baea5558U, 0xbdd440713cb62945U, 0x3d9edfed3e367ed3U, 0xbde1e8583e2ff924U,
  0xbd6cc66ebdf52dc2U, 0xbe57d1f5bd649794U, 0x3c4bb56b3ba7fd2dU, 0x3cd639c73d470f7aU,
  0xbe023c28bd39916fU, 0xbe06f51cbe2bfdf9U, 0xbe1a8b35bddf1c86U, 0xbd858f5ebdd214d3U,
  0xbdd5671abda16921U, 0xbdc9fbfebdd28295U, 0xbdb38007bdea400aU, 0xbd3e9894b8f87becU,
  0xbd8904103b95ce7eU, 0xbd1be6a0be8b10bcU, 0xbd32e07f3d3f7d4bU, 0xbe2919cabcf32088U,
  0xbe59ffe53b016184U, 0xbe40b5d7bd6c73d6U, 0x3dba3ca8bdb12227U, 0x3d5c9bde3d4b23bdU,
  0x3de7d277bc75bae0U, 0x3da073a83d039ec1U, 0xbe85e673be0d6079U, 0x3cdcf3a0bd0ef602U,
  0xbe372a78bc2e82d1U, 0xbdd1199fbd23cd87U, 0x3dc237443c08b130U, 0x3e13605a3dda6b9bU,
  0xbe2067aaba39a196U, 0xbda27832bbbfe303U, 0x3bc32b0a3ce32560U, 0xbbefeba33d7907adU,
  0xbd2adfdabd60174aU, 0x3e2698183cf2a949U, 0x3db1cd28bcee43e4U, 0xbd1f9b52bd9572f8U,
  0xbbfed9bd3d2563c2U, 0xbc8ccd05bd4ffa8eU, 0x3db8ea76bd458ba3U, 0x3d7a6c62bde71818U,
  0xbd3084ee3c05f2f0U, 0xbdededbd3ce4b9d8U, 0x3d7c43233d7e2106U, 0x3d4f75fdbb1498fcU,
  0x3dcb6655bd8b7481U, 0xbe12dc30bbc0886dU, 0x3da62190bcf90255U, 0xbc3e8d8dbd408f96U,
  0xbd4f61083caec37bU, 0xbb62ca88bd69738eU, 0xbd89a740bc391a0eU, 0x3d814d7c3c59fca5U,
  0xbd815d923d82f030U, 0x3d5e88b2bd5acb63U, 0x3db39843bde5680eU, 0xbd8030303b0d1c0fU,
  0x3d7d9da6bcfe1904U, 0xbdb2ab703d19114fU, 0xbd2b1b8a3beb5e84U, 0xbc44246fbdc1091cU,
  0x3cd09b0ebdeaf98fU, 0x3d32e4be3d82b16cU, 0x3e0745523d52a5bdU, 0xbd9d0e8d3d88d5dbU,
  0xbc98fdadbdea5ea0U, 0xbe04fc243d64e688U, 0x3df1941cbc222d87U, 0x3d9a0cd43d4bd128U,
  0x3cb003cfbcb8b563U, 0x3d9e9b6fbda965e9U, 0x3d67de69bd7abd93U, 0x3cb6f5003dba1238U,
  0x3c959c2c3d39eea6U, 0x3cf3ffbcbdbecbbdU, 0xbe40ee58bdd47d3dU, 0xbde9c873be0d6e5aU,
  0x3e076afa3d920beeU, 0xbbd5a5d0bdd56706U, 0x3db3dc423d4eb7b8U, 0xbdd20a953db9dc78U,
  0xbb86a2cebd8b5700U, 0xbd9c6676bdae7353U, 0x3e9395683cb836b9U, 0xbd52d7363e2f0f4cU,
  0x3d8c32bb3dfd4792U, 0x3d9885613d7d0b3eU, 0xbde9cd42be86f1d3U, 0x3d34e0063dd70cbeU,
  0xbd4a719ebcf6d7bdU, 0xbddd982fbc9db05fU, 0x3b8d1a7f3dc1d868U, 0x3e3d3982bcce1146U,
  0x3d37dacdbd800a54U, 0x3ddb10f3bd11cf20U, 0x3dbc79b13d92d6d7U, 0x3d11603ebd21902eU,
  0x3d3d3919bd0162d6U, 0x3ddc23883dbc3e29U, 0x3e104ed13ceb725aU, 0x3da26dee3ca38558U,
  0x3e02c5193d63c6f8U, 0x3db7bcabbd9d4242U, 0xbd6d70d1be8a8839U, 0x3d9ba4193dc779a9U,
  0xbd987a7abcc7def7U, 0xbe05366c3dab72a4U, 0x3ddd02e7bcf84e9eU, 0xbc01e56bbd51a58bU,
  0x3d903d7dbe7b6396U, 0xbbb2b6983d63a993U, 0xbcfb46713cd606dbU, 0x3e13335c3dcfd7deU,
  0x3e1b1b043cc23fcaU, 0x3e04ca823dc94067U, 0x3e48df973d5c85a4U, 0xb90f47563e10ded7U,
  0xbca26087bd8c3c02U, 0xbd0e9e03bcf7107eU, 0xbdb1af0fbd2a4a47U, 0xbce9bc763b445c6eU,
  0x3d4001eb3d4709f6U, 0xbd5d60c73d5671e5U, 0x3d4ea4c8bd8eef67U, 0xbda82b7ebd531fc8U,
  0x3e2d7f22bd3d4c1aU, 0x3dae76ad3c9637caU, 0xbde338f9bd7d6728U, 0x3dca45f93cea4c8cU,
  0x3d6f2ec63e000eb5U, 0x3d4119f1bc0b6971U, 0x3e1dbced3d5eb3f9U, 0xbd32f6933e032a14U,
  0xbde0ad493d8a5ffbU, 0xbde57696bdfb5386U, 0xbcd952eebbc70164U, 0xbc851ba0bdda1c18U,
  0xbce4e78ebd92b95dU, 0x3b244609bd7ca3f7U, 0xbdc690e9bdd5569fU, 0x3d4070f83b0a0f0aU,
  0xbe23a202be57009bU, 0x3e109283bd5f35fbU, 0x3d69c1683d84a313U, 0xbdea2f543b1410c8U,
  0xbdf2ea05bdae292dU, 0xbd76d6bcbd93627bU, 0x3e93fecbbd0f261cU, 0xbd7fd454bcbaaa19U,
  0xbddc2089bd9abd8eU, 0xbe27ccc6be2bd991U, 0xbd62ef10be101b7fU, 0xbd59fe7bbe023386U,
  0xbd156469be2b9faaU, 0x3c0bdb303d6e3337U, 0x3d4e4933bd969f52U, 0xbc9db9d2be0c4a5fU,
  0xbe16850abdfd8ab2U, 0x3e2c6f0a3c8b7b7eU, 0xbe0986603c8d9e22U, 0x3dbf59c2bd3ad6a7U,
  0xbcc6a1bbbc2b4353U, 0x3d60d2acbd16a45bU, 0x3e78afbcbdba2d69U, 0xbc867df0bd7849bfU,
  0xbd541403bd8970d9U, 0xbdb38780be29a07fU, 0xbe00dd96be0d5fa8U, 0x3d4079babdc77d4dU,
  0x3c8b5599bd7f7e17U, 0x3df187d73d629219U, 0x3d80d473be070b08U, 0xbcab4b8abdbff9a3U,
  0xbdef4a753bb39471U, 0x3d5ad929bd3341b3U, 0xbd9100d9be2b6c84U, 0xbcb567923c134230U,
  0x3cd98020bc6bcd2dU, 0x3dfe2fa2bd11dfa3U, 0x3e5df953be06fd91U, 0xbcbe197fbdddedfbU,
  0x3d56dbf6bbb64746U, 0xbd81f39a3c2bcbc4U, 0x3ce1c82abccc7dc2U, 0xbcf32e203e22cf3fU,
  0xbd8922b33d9b2c89U, 0xbdf6bcdd3ce15459U, 0x39c76666bd54dd33U, 0x3d84581e3e002c7bU,
  0x3bea8c633dcfbe11U, 0xbdc74c763d39f152U, 0xbe1208f6bd91772bU, 0xbd87642abd2593b6U,
  0x3d9f676c3cb91aefU, 0xbc9e4c5cbce0cf5eU, 0xbda0ca42bcfa9cfaU, 0xb852f1883c844dcdU,
  0xbc2b8aaf3c98eaeaU, 0x3ab83981bd21d05eU, 0x3d8c503ebdb23dbeU, 0xbb9367b03d710a58U,
  0xbdb6a472bb0ed352U, 0xbe58885c3dba30b8U, 0x3db5b3f8bd39b35cU, 0x3e03daa63ce35432U,
  0x3e151aa6bddb5839U, 0x3dab7719bcdc7695U, 0x3d33c893bd863fc8U, 0x3d078825be123d39U,
  0x3d0ad482bc9731fdU, 0x3e084b53bda76efeU, 0xbc0c63dcbc117e67U, 0xbd823fffbcf2b81cU,
  0x3d5c7bb63ba882c5U, 0x3d2323acbdff0decU, 0xbd20b8243dbc9b3aU, 0xbd79c126bc09ba15U,
  0x3daad8b0be368411U, 0xbdb832b53a94e14aU, 0x3ddb97703e11a781U, 0x3e3c3fc1bca35e79U,
  0xbd1dab27be06c87eU, 0x3ccd30c4bd8f371eU, 0x3d9ffebc3b363593U, 0xbd7df281bd5444d7U,
  0x3e06f3bfbcac7b58U, 0x3db6cab3bd2afe82U, 0xbd42f1f7bde77326U, 0xbb2d8e7c3ce89ea4U,
  0xbdfc08eebddd9ab7U, 0xbdfdb9dfbd3ac739U, 0x3d543092be0b679cU, 0xbd812fdebc8c1a50U,
  0xbd3208a1bd9437dfU, 0xbda0850abdca03a4U, 0xbce1b1ecbd90de2bU, 0xbe431e0ebdead5f0U,
  0xbd06c9843c87715dU, 0xbd992c283a07b1bcU, 0xbd319fc4bde687caU, 0xbd4e25bbbd97cff1U,
  0xbe26568cbd6ba89eU, 0xbddd136fbe2755f3U, 0x3c8174fabe23e3deU, 0xbd69de1dbdc1e161U,
  0x3d1662283cbbf751U, 0x3d823531bd96de1aU, 0xbddd259bbe5dfb17U, 0xbc9406b43da239dcU,
  0xbd316b5dbd9a67d1U, 0x3e093d0ebdb3ef8aU, 0xbe075e883e06b2e4U, 0xbdf71bdc3cebe16aU,
  0x3ce8be623d5556e6U, 0xbe662e5dbcc2d129U, 0xbda156963d241326U, 0xbdeae1803e005c12U,
  0xbd66edecbcd5e512U, 0x3c2be3a33d23b47cU, 0xbcd8b1cb3df19271U, 0xbce41dfa3ceddb21U,
  0x3d955b173ce6ed7cU, 0xbc80e5863d9629f6U, 0xbdae6039be0a8737U, 0x3d9aad553d0c92d4U,
  0xbd7251313dfcb50eU, 0x3c77eba13c253d3eU, 0xbe42891abce70d57U, 0xbe9afbbfbd49930cU,
  0x3e5e79ac3e2e1c17U, 0xbe33c200bc4ef210U, 0xbc8dfe3e3b4169d1U, 0xbdc734d63d95cdf8U,
  0xbdaea473bd3d418cU, 0xbddd676c3d46c3c5U, 0xbd68efef3c93f1a9U, 0x3acf522f3dc48d38U,
  0xbd1c217dbd2d651cU, 0x3c9e6b8a3da9450dU, 0xbcb2c6acbe225b48U, 0x3d8798d93d424f57U,
  0xbdd2c2c33db684feU, 0xbbf261b4bd8afee0U, 0xbe2aaa053ca574c2U, 0xbe88a99ebcabc761U,
  0x3e9944fc3cd92715U, 0xbe6e7a0abc1c9bc4U, 0xbbbab1883de8c564U, 0x3c08bb633d9fd937U,
  0xbe01f8f23dea7d7aU, 0xbd9e7f903d1318d1U, 0xbdabfab53dc73727U, 0x3d39e59f3e1c0e32U,
  0xbcdb377abdd57c34U, 0x3d282521bd84b5f7U, 0x3e4e4dc1bd15c667U, 0xbc6bc1803cf3e1b9U,
  0x3d9e8b493d8c26aeU, 0x3cf5f4a33dfd7fd6U, 0xbe306a08bdbe1e79U, 0xbdf84b8cbdb5af49U,
  0x3e64e5b4bd391536U, 0x3bf548783d60076fU, 0xbdc14ff4bd89ed93U, 0x3e1cbdb23dd56cd4U,
  0x3e0178983d925ba4U, 0x3d4d307dbb286080U, 0x3cc3ca913d992f71U, 0xbca695773db68e0eU,
  0x3de81933bd2249c4U, 0x3cb1dd783cfc5c33U, 0x3a210538be3e6a67U, 0xbd13e0bb3d354170U,
  0x3d4edbb73dbd0301U, 0xbe1986cd3dbdd898U, 0x3d8725353df988dfU, 0xbcab374dbd8597e9U,
  0x3d82dcd0bdb39e55U, 0x3d8325983d8c42eeU, 0x3d8fe2a0bdfb597cU, 0x3e0136a43c97743aU,
  0x3e2f18a1bc2a3810U, 0x3e246870bc8f5599U, 0x3d5e49883d02c542U, 0x3d2fe883baa9223fU,
  0x3d101db9bd2be8e2U, 0x3ca426f0bd8d01cbU, 0x3e3e5c46bb893d6bU, 0x3d91c2cb3ceb68b7U,
  0x3db6e3933dc3b7bdU, 0x3cb0c52ebd1e9f4fU, 0xbe8468b73ce7b5daU, 0xbe98c97dbd9e0e1eU,
  0x3e4dfedf3db9330dU, 0xbe32c8b53d7f39ceU, 0x3d05394fbd7ea78dU, 0xbe2253253df6ce6dU,
  0xbd79eeeb3d9a14c2U, 0xbe8816273c9c02a9U, 0xbd47d6683958f818U, 0x3d5f8f4c3da01e4bU,
  0xbd9c7054bd777ccdU, 0xbdede6433c349e91U, 0x3e5e37703df898ebU, 0xbc344428bcd423beU,
  0x3e38b5983c912298U, 0xbd5c06453989bfeaU, 0xbde14885bdf65f59U, 0xbe81ea723d1f547cU,
  0x3e25dc9a3e49264cU, 0x3da8bea43d457040U, 0xbdcefffcbd4a041dU, 0x3be7df163d92fbddU,
  0x3da56c933d134bbbU, 0xbe044099bde58a97U, 0x3d01a9943c54a86aU, 0xbdcb86473ded3310U,
  0xbd5f4ca03c279ac6U, 0xbdebdf4dbdbf6547U, 0x3da94b13bceeee28U, 0xbd9ac9f33c8936f9U,
  0x3e15c331bc80b0aeU, 0xbe379a203da1aa6aU, 0xbd158aa83dacd3b2U, 0xbd835d75bd4fdfb5U,
  0xbc6644d53d1f580dU, 0x3db9d3f7bc898757U, 0x3c04e07cbe220790U, 0x3d144bf73e2f6933U,
  0x3e244a42bd0b8c7cU, 0x3cd47beebe150284U, 0xbe0b94d83d87628cU, 0xbdbf6ed13c73ce94U,
  0x3e1945883d10f0f6U, 0x3d8f3167bc57eb70U, 0xbda807cbbe800132U, 0xbda92c083d48c55aU,
  0xbdfdbf443d22466cU, 0xbe983dacbe0141e9U, 0x3c78b8ff3dad72b9U, 0x3dbe1a14bc355e36U,
  0xbd9a24c4be30dbadU, 0xbe188e503cc61c69U, 0x3e0d0b00bdf5bfa7U, 0xbc35d80ebdb2b1b2U,
  0xbd2e0b753c58211fU, 0xbdf623b43c9f6898U, 0xbe554d3c3a657ecaU, 0x3d9138efbdf08291U,
  0x3ab66ad43db21330U, 0x3d697e25be1c527bU, 0x3cd58371be345200U, 0x3d921c613c99a9fbU,
  0xbc152a6e3d89bdf4U, 0xbead5ac6be00a066U, 0x3c24accf3e16119fU, 0xbdea0970bca4d373U,
  0x3e13d2c1bdcbade1U, 0xbe0177723d0fb48fU, 0x3d9f28703e2a60cdU, 0xbbebdd7e3dfce1faU,
  0xbd9f83b4bd082536U, 0x3c94daf93d52a7d3U, 0x3e6366323d877e2eU, 0x3dd5bbc23d2a48a9U,
  0xbd9ed8cfbd69d953U, 0xbd9c9b88be0d5321U, 0x3e0c42f6bda5e4b0U, 0xbd6e8b80bd95d3e3U,
  0x3d2188aebd684facU, 0xbe0d7772bda2586bU, 0x3d6a4c24b90460c6U, 0x3d5b1c0e3e0fb99fU,
  0x3e3a40cb3dc00f7fU, 0xbcffceaebd28e5c1U, 0xbd8ed3eebbf352d2U, 0xbdc555c53d73abd5U,
  0x3e06ba043d3e6481U, 0x3df6dbfbbd406b7bU, 0x3cec2ae73b9412d5U, 0xbc0d94b53d0c9e6bU,
  0x3dafff203da883d6U, 0xbd28fa3b3d6904d6U, 0xbd58674cbe46d968U, 0x3d9de43b3d5d17d0U,
  0xbe34dd0fbd7f7dfdU, 0xbea7423bbd4ec230U, 0x3d9cc808bcbe07e1U, 0x3e3b82053de47be4U,
  0x3d686797be0e9725U, 0xbd97e9b8bd58abcbU, 0x3db33eb73ca7a1dcU, 0xbd87afcc3d40cb2aU,
  0x3d9f3a6cbcd4fcfcU, 0x3d286ff43da8413dU, 0xbceb9fd83d858d96U, 0x3db7ebd13d9df2e5U,
  0x3da1f0783d885330U, 0x3de2d837bd501f45U, 0xbe20a100be9cb628U, 0xbd0d97b63ab066c4U,
  0xbe11792dbcd45bfaU, 0xbee0bf803d1b2d06U, 0x3e05daf83db6cf9bU, 0x3e3a6549bd940602U,
  0x3d24c604be3aff49U, 0xbd1f25b5bd829fc8U, 0x3dd48e763e1cd5deU, 0x3da8f16b3dec79caU,
  0x3dd0065ebd13e624U, 0x3e361c423d8e59c1U, 0x3e35bc45bc148fc0U, 0xbcd795a33dbf5edcU,
  0x3d8c29cc3d9721c5U, 0x3d9ccf4f3d628e1dU, 0xbc45e86bbd097126U, 0xbc5ae3803dfc89bbU,
  0x3d7d8aab3bf17b87U, 0xbe2e6b7f3dbcc091U, 0x3d87db253dfae752U, 0xbcdef6b7bde09800U,
  0x3d7df05abd41f779U, 0x3ca38a6b3c923199U, 0x3db35fb13d37246aU, 0x3d17c6df3dd63accU,
  0x37c026603d80967dU, 0x3cf266983d992757U, 0x3e93da023dea843eU, 0xbb52960f3e25077cU,
  0x3df03b183e49ebc6U, 0x3d3f55343dd4597dU, 0x3cfff8f33e0eaee8U, 0xbae8fcc03d6bb3efU,
  0x3ac5b0fdbaef3655U, 0x3b97db9ebd72efb4U, 0x3dcff1193db5fa35U, 0x3dcdaa753e2ac517U,
  0x3d1585c33b08d7a3U, 0xbdee31553bdb78c9U, 0x3db0abac3e0212beU, 0x3b4e04923d5ff43cU,
  0x3a7aea66bd76b199U, 0x3dd953663e165116U, 0xbdd07d3f3da5effcU, 0x3dd6d7413d591c65U,
  0x3d8cecac3de7af31U, 0x3b8d38a13d71cb21U, 0x3cc883b63d8cd387U, 0xbd68c4963d1c575eU,
  0xbd7ecef83c9f9579U, 0x3ae485383c53f6edU, 0xbdf687be3d58e829U, 0xbe4b5ea7be11675fU,
  0xbdcb25a9be64fbe1U, 0x3b8cd0e4bdd93c5dU, 0x3d80d2e5bcb71234U, 0xbde088d93c9d5e7fU,
  0xbdf01a84bd5af821U, 0xbdf428203d954a15U, 0xbda04a99be1777f3U, 0x3d03cd36be0111c1U,
  0xbd94d061bdcf85d8U, 0xbdafabbdbdaf273eU, 0xbdb7cdf53d9931dbU, 0x3afdc200be0959a1U,
  0xbd9e04dabdc70c5bU, 0x3dc97876be2a16cfU, 0xbe377c99be3adc11U, 0x3e0d3c213db84a2fU,
  0xbe3cb5143e46b687U, 0xbdf9ea17bdf96b45U, 0xbd5da6bbbe27501dU, 0xbe6c5c913c612fa2U,
  0xbdf0cababdd042e1U, 0xbdcea454bdcff0a0U, 0xbe24396fbc9d2a3fU, 0xbdde2322bdad8e6bU,
  0x3cb308613d9d3968U, 0x3bf5076a3db21e5dU, 0x3e006bb23e626502U, 0xbd07d4a03dcc8440U,
  0x3daa4d753d5e8a92U, 0xbdc1c9233da1135fU, 0xbd7ed6f83d859dfeU, 0x3e364f4b3d99395bU,
  0x3d0d6374bd97bef7U, 0x3d666c323df7f330U, 0x3db356c1bb87192fU, 0x3dfb599b3d134f06U,
  0x3dd6cf5f3db51366U, 0x3bb28c953d42078cU, 0xbdc0da833e25fb83U, 0x3df367fabe2aca71U,
  0xbd94d140bd440a21U, 0xbd9552d5bd62aec0U, 0x3c63f4663e4633ccU, 0xbceaef4cbd08bc80U,
  0x3c61bf78be06bdfaU, 0xbd515f3fbc26fe4cU, 0xbe69bd4ebdaab043U, 0xbe57877dbdf305a7U,
  0xbc221bd7bc9c09faU, 0x3bd45a753d519848U, 0x3dcdf55ebcf09d7eU, 0x3d319c37be23dfb0U,
  0x3d06f4eabaf098cdU, 0xbdcb6ce43d9d6395U, 0xbd94ead6bdb629b0U, 0x3d6a0977be11d1e4U,
  0xbdd65ec5be6653a3U, 0xbe25d183bc93ce40U, 0xbe1d41ecbe019baaU, 0x3c114768be23fd34U,
  0xbde88537bcdfe6d8U, 0x3d482d08be3779afU, 0x3b719b17be587fdeU, 0xbc3f243a3db54696U,
  0xbd8d0cd8bb58ba5eU, 0xbd94e033be3567c9U, 0xbe69bc73bdf91d61U, 0xbe25f94ebd5c9764U,
  0xbe20d977bafc7587U, 0xbe295930be0ae482U, 0xbe2a83733c6d9dbcU, 0xbddc94533b708148U,
  0xba3b82103d10345bU, 0x3cd8d1e9bd42f608U, 0x3e20f81a3e3d7e45U, 0xbcec2e803aa51f2dU,
  0x3e43508abc7d2ff7U, 0xbdfd04a83d8c54e0U, 0xbe8e6ffdbdf3adc9U, 0xbe8926cabe887b67U,
  0x3d8d067fbe7b97e6U, 0x3d21ffb0bb6dae21U, 0x3d3657a0be62c1bbU, 0x3e00f2d5be3b4385U,
  0x3dda5787bc12cbb6U, 0xbd802763bd920fcdU, 0xbd6c52f7bde74045U, 0xbdd96b69bed3e50dU,
  0xbe06a411be86addaU, 0xbdc91a37be6f17efU, 0xbddf12923d87d442U, 0x3d787f8abe2c6ec2U,
  0x3b255465be1eda35U, 0x3d9d0020bdf2c875U, 0x3c95cf3ebe224af1U, 0x3cf8c3e03d4441acU,
  0xbe1d99da3cb23b81U, 0x3b055d58be18d2e2U, 0xbe30a479be318f3cU, 0xbd534be0be4914d9U,
  0xbd4ecec9bd0c7259U, 0xbd4a46aebe624c44U, 0xbdbcb4d2be41b01dU, 0xbe2d6724be0afd7dU,
  0x3decbda4be1c836aU, 0x3da463ee3cfa84d4U, 0xbd285675bdce5498U, 0xbd957650be1797b9U,
  0xbd9c46e83db45bb3U, 0xbc4bb88ebe1f112aU, 0x3d48a0783cd54cceU, 0x3d6e9e5f3dee38bfU,
  0xbe02dfed3dbe3a2bU, 0xbe6f4219bdff82e3U, 0xbdf51fa6bd8b3556U, 0xbe1fde0e3d6b95bdU,
  0xbd9841a33dc590ccU, 0xbc9ed9d2bd17abcbU, 0x3c0b913d3b1f1080U, 0xbd63dd393ba81fa0U,
  0xbde158cbbe2da409U, 0xbde47a9cbc3ebd69U, 0xbd22392fbe388151U, 0x3d8fb201be0b9477U,
  0xbe259a273d0a0eb3U, 0x3d30992fbe1754a8U, 0xbc5d5f973b4bc698U, 0xbd0537b6bd0e4ddaU,
  0xbcd548233c06f0cdU, 0xbeacec22be102c6aU, 0xbda36008be018d9bU, 0xbda9d9bcbd9a1803U,
  0xbe1d4004bd46d1ddU, 0xbe3bbe24bc92daa2U, 0xbe9a08033ca8799bU, 0xbd83e25fbc9f5e59U,
  0xbdbb66a0bd6a6d78U, 0x3d743e3c3d8f8c91U, 0x3e00ac453def35deU, 0xbbd15b30bcc9af36U,
  0x3d256bf23c9004f8U, 0xbd7f1b163d0ab66aU, 0xbd04b82d3d98f3c9U, 0xbdaf05013d9ded13U,
  0x3e79680a3d252b08U, 0xbd964bc83c21952fU, 0xbd8c4cd2be0fbef4U, 0xbc2b9ca73d602a42U,
  0xbce429683b6ce240U, 0xbd8a12fcbca7534cU, 0xbebce3d33c5ad9f5U, 0x3d973dc7bc4940cbU,
  0x3d53923c3bb136e2U, 0x3cc7f42e3d0b91ffU, 0x3e4189d53e4cc291U, 0xbd4a5f40bd0172f0U,
  0x3e7212033d0c2598U, 0xbeaa17933c0e39edU, 0xbda99fb43c254b0cU, 0xbe0e8e52bb5bf679U,
  0x3daa46e73c8a4552U, 0x3e16e39f3d332f12U, 0xbd6ced0fbdc9a36aU, 0x3dfc639cbbae6699U,
  0x3d7675cbbcb2f7f1U, 0x3d3c1b2b3d0c4b83U, 0xbe1f3a7e3d49052fU, 0x3da0d0d5be0daee2U,
  0xbd2ac4d5bd604dceU, 0xbce4f7273d4021ecU, 0xbd16bc893d2fc58bU, 0xbc8b3a0cbd87cfafU,
  0xbd8f393dbd1f4353U, 0xbd7ea46abd30306cU, 0x3d0970c9bd7e68cdU, 0xbd20badb3d2b4ba5U,
  0xbd525dbbbd2f7e2eU, 0xbe87f7b73d05c67eU, 0xbd271857be3eadf4U, 0xbd5a5851bda2f3f8U,
  0xbc913a8cbd45c608U, 0xbe116d69bcfe6d5aU, 0xbde0b207bd1c3a5bU, 0x3d25ab52be0d52cdU,
  0x3d9c0f033da9670bU, 0x3c0d6411bc827c53U, 0xbd307096bd2f7248U, 0xbd955b6ebd3b1ccbU,
  0xbd0dd8753c8c5efcU, 0xbeddf21cbcf618d2U, 0xbd5768f1bc96f776U, 0x3d71d449bca0ccbcU,
  0xbd253317bdf53c3eU, 0xbe6f304c3d040d03U, 0x3de02741bdf1113aU, 0xbd85f511bd00ae8bU,
  0xbd0f70503d6ffd2eU, 0xbdc26374bd445362U, 0xbdfd6789bc2459daU, 0xb969ab15bdf6dc11U,
  0xbd1fa7e83e0ea341U, 0x3dcacad2bd886416U, 0xbb9783c8bd5a136cU, 0x3d50b36a3e047787U,
  0xbb538dc1bd928c4eU, 0xbe068553bd31fac6U, 0xbdb30b503d48288aU, 0xbe6fe52dbe013343U,
  0xbd1a560bbe1c1212U, 0xbd922a3ebd81572eU, 0x3da12c6b3e2f2834U, 0x3cb2c1063dca30f2U,
  0xbd554ae63cd8e440U, 0xbe2f5adc3dc6f072U, 0xbcf2dabb3d432910U, 0x3cd94fa03d2bc3daU,
  0x3e0704a33ca2146aU, 0xbd0291b03cf4a588U, 0xbe54c3ebbe39d02fU, 0x3d029e6a3de500f6U,
  0xbe010412bd9fe181U, 0xbe896d753d9a9df3U, 0x3c6956fa3d6c5db8U, 0x3da299893d98ee12U,
  0xbe0c67c7be0ef7a6U, 0xbd7d3bc1bd7f72e9U, 0x3d9efefdbdb6b280U, 0x3dacfcb4bd939644U,
  0x3d77acfcbda1fe52U, 0x3d9025f23dd7e6cfU, 0xbc4ed636bd687aaeU, 0xbd34d275be4d1157U,
  0x3de3941d3d17d634U, 0x3e06c1ff3d820ef6U, 0xbe0f12eabe8b510dU, 0x3d89828b3c530e7fU,
  0xbe0bded7bd333893U, 0xbedabd3dbc151804U, 0x3c5958593dab652dU, 0x3dc40073bd48a8b1U,
  0x3c4518d8be121905U, 0xbad06d26bd0c6cadU, 0x3d19764f3cc5df93U, 0x3d899200bbcb4219U,
  0xbd3f30f63c2b791fU, 0x3d05fae63b574700U, 0x3cc97920bc79f5d5U, 0xbd1474953dd22667U,
  0x3db36b653da368b1U, 0x3e17e4743dc32565U, 0xbd7f796bbe5d6b04U, 0xbc4b99803d600ce0U,
  0xbc81710b3cb78382U, 0xbe0e87babc0462edU, 0x3d8edfad3e1017d9U, 0x3e2f0f0ebde6456bU,
  0x3e8087ccbe3a3325U, 0x3e36b426bd6d6390U, 0x3a28bc823e83d451U, 0xbbdf8ef43ddd5051U,
  0x3e114271bcbbe511U, 0x3e1c495e3d882c43U, 0x3e1f7f513dffdb3fU, 0x3cd0d9013e04f56eU,
  0xbde211733c6ea1aeU, 0x3d283108bd7f111eU, 0xbe60b22abe86ff72U, 0x3cb50540bc9d888fU,
  0xbe3da0c0bcebc74fU, 0x3e8f2141bd932901U, 0xbe6ad63e3d6e37b3U, 0xbead822cbe81fb95U,
  0x3da44335bd371b1aU, 0xbd697088bd73667fU, 0xbc9c84113dd4ae55U, 0xbd8207533e7bdbeeU,
  0xbce81883bdec385cU, 0xbe1c033e3ce3d1c6U, 0x3ec32cab3cc3d391U, 0xbd52f1533e3fbff0U,
  0xbd7c69163dbd75c2U, 0xbc4d8068be36913aU, 0xbdb9621cbead03ebU, 0xbd7b7770bd8b34f0U,
  0xbe9d7d34bd80f854U, 0x3d913f10be5bef3eU, 0xbe1487853d808bb0U, 0xbdb18c50be715995U,
  0xbdabf854bd954289U, 0x3df1d357be583d82U, 0x3dd4d0483e8c8151U, 0xbe78de8e3e868e76U,
  0xbe0ec922be6e0be8U, 0xbd621cc6bd6964d3U, 0x3ec375153ce71666U, 0xbdb7719d3e71f296U,
  0xbe7fba583d65a587U, 0xbe3cb690be6392e7U, 0xbe17520dbe02a375U, 0xbcd742f6be08e5f0U,
  0xbe23ef07be550002U, 0xbd7dde62bd8846f1U, 0x3db7c366be33f82fU, 0x3eba3de83def71cdU,
  0xbe84860fbe10748cU, 0x3e6d0939be89153fU, 0xbda928073e4f150fU, 0xbe069e3a3dc2ac30U,
  0xbdd66fbdbe4b78f3U, 0x3e372713be412d4bU, 0x3ee28d33be6e10d8U, 0xbceab96e3c276cfeU,
  0xbca864fb3cf41485U, 0xbc13496abd68bb02U, 0xbc2142debd36e4e2U, 0xbd96d936bbac5df6U,
  0xbd1972013d4012a5U, 0xbd37d4123c8a44f9U, 0xbc6dadde3d98ab5dU, 0xbcb72eea3d853b8eU,
  0x3de64db5bd919ea3U, 0xbbd3c4a43d91057dU, 0xbdf3cfcdbdb1b51dU, 0xbcbf7f20bbbb43e4U,
  0xbd0641a83c41a4beU, 0xbdb1923ebd7acdd2U, 0xbd4596d53d5795bfU, 0xbd4ebcda3d5dfb5cU,
  0x3d84c3833d91ad99U, 0x3d371d9b3cf5e6f2U, 0xbd39f9e3be60fcaeU, 0x3cbac1803d16e0fbU,
  0xbd8e2e66bd4b8900U, 0xbdca27a63d1179d2U, 0x3e1da2763db6b334U, 0x3d75c9353d408735U,
  0xbd2de79ebe0a7e5aU, 0xbe6bf57b3b16f0c2U, 0x3dc397cc3dbb4586U, 0x3dea35a83d1a933fU,
  0x3ddd58b33dc7f482U, 0x3d95dad73da96fbaU, 0xbe5e9d553c83e616U, 0xbd8d36683cd76ef7U,
  0x3d7c2b2e3e137784U, 0xbc3ed178bd1a1283U, 0xbb9de9b83cd6c3f4U, 0xbb6a28003cba4c8dU,
  0xbe1c89823d091dd5U, 0xbda70a78be237438U, 0xbe0249883dbec906U, 0xbe4067f7be1c216cU,
  0xbd493c90be48e433U, 0xbea6a9bebda3223cU, 0x3cbd77a03e08713cU, 0xbe24fe4dbd0c3084U,
  0x3d031116bcede864U, 0xbdca01ec3da13d50U, 0xbd68d9353d80bbd5U, 0x3db04fee3d95f83cU,
  0xbc9b12213dd74144U, 0x3d8c5180bd5d6fe2U, 0xbe2ec0d5bd218b81U, 0x3c8d67803d852f9aU,
  0xbe2f7fe43cc70fffU, 0x3c9c8ae8bd8bcdb9U, 0x3d5bce583e16db92U, 0x3d58e0ff3d7a07d9U,
  0x3bfb7ffd3d1b35ffU, 0xbe128be63c3c4184U, 0x3cac707e3d892286U, 0x3d032ec5bdbf913fU,
  0x3c7ef0263cc9c514U, 0xbd449f93bceac719U, 0xbe2769d0bd4124ccU, 0x3db1f885be05d880U,
  0x3c7ab9493def76efU, 0x3d2f25fe3df207b7U, 0xbd5e0fbe3d9fcb18U, 0xbd871d463cba857dU,
  0xbc48a9d73dbd4cd9U, 0xbdbebbf73d5824f3U, 0x3dccd3103db50807U, 0x3de1365e3dd1d654U,
  0xbd9ebdbf3d050ef3U, 0xbe07133a3d8a262dU, 0x3e13bd3f3c206a00U, 0xbd43d5d53df863cbU,
  0xbd38b5123dccec0eU, 0x3ba447dd3c96fa4eU, 0x3d85b6453ccda1b6U, 0x3c8ed52e3d9557cfU,
  0x3deceef33e1509e2U, 0x3de1dda73d40a48bU, 0xbcd137503dbc0ea8U, 0x3d93314dbcedcca6U,
  0xbdcf47a8bc815e52U, 0xbcbf532dbd96313cU, 0x3dcba2803e0dac7cU, 0x3e2385d23dd511e5U,
  0x3d00fe2cbd1d3c93U, 0xbe64782fbcf486aaU, 0x3d2587bd3db6a166U, 0x3db331b43deca97bU,
  0xbb83faa0b9b98cc2U, 0x3be2c0233ddbdb79U, 0xbe63a9493b561b2aU, 0x3ddc98fb3d7e4f47U,
  0x3d656c3c3c46cc03U, 0xbcb9be8fbc946186U, 0x3ce80c44bdf29ff4U, 0xbcee48b63c1c8a64U,
  0x3c0169133c39455fU, 0x3db4281fbd2a69d6U, 0xbca7c1203d434d18U, 0xbe1f8a45bd07de5aU,
  0x3ba508b33dab9fcfU, 0xbe31deeebdb6cf11U, 0xbca6c4bd3d30759bU, 0xbdbdef7d3defac57U,
  0xbd86b67bbd189605U, 0xbd7f787cbda2e7beU, 0xbe160502bcd88d9bU, 0xbd27f1de3d8b6691U,
  0xbdcebd5bbd583705U, 0xbd75f7e23d772673U, 0x3e09a4c0bdbe826dU, 0x3d06f57a3c98a04cU,
  0x3d1fc1c63d9226f4U, 0xbd88c804bd8873caU, 0xbe044671bcaf830bU, 0xbe358d763cbc5544U,
  0x3e1c228e3da10598U, 0xbd0f309d3d930e3dU, 0xbdd411f0bd03cfe4U, 0xbba47ea43dd301eeU,
  0xbdc56c01bd3b2b99U, 0xbe39de863d15ae23U, 0xbe36589e3d15e833U, 0xbbfcbf8c3c43ba0fU,
  0xbd298a78bd0f7cf2U, 0xbd299a60bcce4d4aU, 0x3e2b6e693d969ce9U, 0xbda4d5c8bd1ecb56U,
  0x3c0adeae3dee90dfU, 0xbe82b1d83dad9238U, 0x3db0081b3d24746fU, 0xbd746be23d19960aU,
  0x3c98e803bd34547bU, 0x3b9f86433c96da02U, 0xbd3f318abdc013d0U, 0x3d37895cbda4a152U,
  0x3d8d46ef3d873915U, 0xbdaeedb43c6e63e4U, 0xbce3ceb8bc2ada62U, 0x3c5b21bbbd33cf99U,
  0x3cd1d05a3c8ebae1U, 0xbddf2d21bd1ac413U, 0x3dedd3583ddc481bU, 0x3d2c798abd90b6e2U,
  0x3cbdc1a63d72e971U, 0xbe01de0ebc07f805U, 0xbc8cf99ebd768ac3U, 0xbd6210c03ce798dfU,
  0x3cfd714abdb9ea83U, 0xbc3012553d788e1aU, 0xbcf9fb72be56ebf1U, 0xbc1889613d4b1dffU,
  0x3b725491bd46d787U, 0x3ccfa459bd541090U, 0xbd9a4e143c197c98U, 0x3c3ecd7dbd5e194bU,
  0xbcc33702bcdaafaeU, 0x3b2436143cb72f91U, 0xbd43a229bd939f5bU, 0x3d2445603d40d95bU,
  0xbe45719abe020e2bU, 0xbed400b03ca48347U, 0x3e0418d93dc0fcdbU, 0xbd04f1023db673c9U,
  0xbdf26bb9be59bf7aU, 0xbd101328bd212ec5U, 0x3cece9af3d7d5621U, 0xbd1e44563c968a94U,
  0x3c0abb92bd0b14feU, 0x3d16e7643c986961U, 0xbddc3ec23d0f0a6bU, 0x3d00ef93bd594ee9U,
  0x3dae3c4e3e0c831cU, 0xbc8fba2a3d32e193U, 0xbdd7288cbe42a377U, 0x3cb02a743d50ec23U,
  0xbd95e0f9bd8dc5a1U, 0xbe1775fbbd7055ddU, 0x3d2f61953dd52466U, 0x3e19ae933c29a7afU,
  0x3cde7051bcc48185U, 0xbe0e6c1abde3ccfdU, 0xbd048d933cbab5deU, 0xbb0f6c703d53d105U,
  0xbd2f473fbc3db400U, 0xbcc4ba2c3cc2d0efU, 0x3dd5b41d3d9b3edcU, 0x3d23ee1e3db0d8d6U,
  0xbc9f70b2bd75c19fU, 0xbdbfbdad3cf223a4U, 0xbd0bdc293d7fb5d6U, 0x3d4c5ab23db51a91U,
  0x3da10d34bd9f9138U, 0xbe1f85573c920272U, 0xbc58b4013d86b29fU, 0x3e1b17b93d8d2200U,
  0x3d91200dbe176f0aU, 0x3d552f493c5cfb93U, 0xbc79c6cd3d6d2e35U, 0x3c6cf734bdef6ef5U,
  0xbd0de5e9bda5f201U, 0xbd1ee67cbd590ba2U, 0x3c16669abda8c7f2U, 0xbd8683b1bc62da5cU,
  0xbd10a80abdbc7678U, 0xbc88db79bbe7f49cU, 0xbe0ab0fbbe71c7ceU, 0xbd2f635b3dd6d71bU,
  0xbe2763bebdb7788dU, 0xbe84efb1bd9a24f1U, 0x3dbfcd8a3d10c56fU, 0x3e45c83ebb632861U,
  0x3d0a4cabbdc87a14U, 0x3cc3582d3c064b39U, 0xbdc3a9fd3cd09e87U, 0x3cc656f6be087a5bU,
  0x3db203c7bd9d1144U, 0x3d07472b3d038a59U, 0x3cf7b0133d6883f8U, 0xbbfe2272bd7060d6U,
  0xbd404f453d472c17U, 0x3c8ebf69bd8abc57U, 0x3e045733bd8f25c8U, 0xbd9a609b3c306d63U,
  0x3d59b986bdfe39f7U, 0xbeb82772bc1d9e57U, 0x3df9e886be021960U, 0x3e2c97a23d1d6551U,
  0xbd2c9e4ebea053d7U, 0x3dcf70ac3d0860c9U, 0xbd16e3493d1d8c61U, 0x3d7bbf74bdb8ad11U,
  0x3dbba6b83c1a7330U, 0x3e259d6ebda60851U, 0x3dab3587bc91bb4fU, 0xbcb1dda93c4d9ebcU,
  0xbe311c20bcf56eceU, 0xbd9732debe553a43U, 0xbe8a2a05bea070b8U, 0xbd97613ebe6c4803U,
  0xbee668ebbde14745U, 0x3d877749be75f03cU, 0xbd54f7e0bcf17aa5U, 0x3e0f8e37bd22ba40U,
  0xbd58e270bd70cd53U, 0xbe0aa1edbeb7b001U, 0xbe0124ad3df8bd17U, 0xbe78d4e53dabef19U,
  0xbe9e3cd7be70d1cbU, 0xbd99f1e6be3580abU, 0x3ddf5219be326da9U, 0xbe6384683d052052U,
  0x3d70f93abe26a9a9U, 0xbd627269bd85a045U, 0xbe69ed7cbe43757bU, 0x3c923f0cbd965e19U,
  0xbe3f7a16bdc84346U, 0xbdf4c22bbdc5640fU, 0x3d8543473cc5928bU, 0x3e8745443d9941b4U,
  0xbd1349b1bbb2fef4U, 0xbc6896dfbe1804f4U, 0xbdc5d4d43bbf2d80U, 0xbd891fbebde619f5U,
  0xbdff54b4bd42570bU, 0x3dce5802bdfc59aaU, 0xbdc2185d3bcdbedfU, 0xbe1be7c1bdf14b20U,
  0xbbcccd183ca1833bU, 0xbcccec973d827af3U, 0x3d854ad03c0c56e3U, 0xbda731333c08c5d0U,
  0x3de36f673cbe0397U, 0xbd1f3dda3d3836f3U, 0x3db760663d29e293U, 0x3d40d62c3e06fd89U,
  0xbce7676bbbc9a492U, 0xba7d0edabcc036aeU, 0xbd211f7bbdc3327dU, 0x3cf95f52be37c4c1U,
  0x3c025ec5bc9b2a8bU, 0x3b802420bd25e3f4U, 0xbde5a529bd33a217U, 0x3d37f3bfbde93c1bU,
  0x3d3d98b83d4f0398U, 0xbba0ed2fbbdb6aa4U, 0xbdaee2d0be1db79bU, 0x3d474f8a3d95967aU,
  0xbdd2714bbdc35433U, 0x3d2373f6be27a21eU, 0xbd026b2a3c8caadfU, 0x3cf728c2bc0bcd74U,
  0xbd91f2f1bd8598b0U, 0xbddedaccbe0d43a9U, 0x3dc012f43db80530U, 0xbdfefe163da1c9dcU,
  0x3d7111b5be1eb5bbU, 0xbcaa920d3cd6df25U, 0x3cfaad2ebd633a1fU, 0xbd51e9353dc5cb84U,
  0xbc816da1bd1be40aU, 0xbdc39334bdfc94a3U, 0xbe94e132bdaebfb7U, 0x3d01373abd945e1fU,
  0xbeb34215bd08768bU, 0xbde6da42bdfeacfbU, 0xbae32cccbccbc9c2U, 0x3e32e583bda41f16U,
  0xbdf0c9bfbdf4f2c9U, 0x3d980536be58827cU, 0x3de798943d71167bU, 0xbcea15763d8bb3b6U,
  0xbe03ebbcbd47aee6U, 0x3d2494aebd9cb50aU, 0x3e123f80bd865824U, 0xbd9fbc44bd9f948eU,
  0xbd964783bdb45806U, 0xbdd22ff9bbd8ab6cU, 0xbe949e33bde2a944U, 0x3d76673abe3108d6U,
  0xbe4a240ebe090431U, 0xbe1e330abd450455U, 0x3d5bdd8cbd399f02U, 0x3d4bc1b03d278635U,
  0xbe646993bdf87ff8U, 0x3be6db63bd4f8964U, 0xbda7aa83bd927f89U, 0xbd8c0cfbbba137b1U,
  0xbd8ef2f9bd543c41U, 0x3cac2548bd9f5d0cU, 0x3cbdc39cbda44bfcU, 0xbde1b3d0bd84271aU,
  0x3c049fca3e11d2b3U, 0x3dbfc88b3e1ceaf8U, 0x3e0cc3e83e324878U, 0xbd4717303caeacc4U,
  0x3e2148bc3db896deU, 0x3d15aff43d9a4068U, 0x3e1781d33d32cc5dU, 0x3e23cddc3d55fe5fU,
  0x3e11208a3bcec0c8U, 0x3de3b5253d0ae219U, 0x3d85e2143da8e9bfU, 0x3ded15283df33abbU,
  0x3e030a523db8231dU, 0x3c925cec3d8ca659U, 0x3b5b2dfa3dee1903U, 0xbc42c2303dadd910U,
  0x3d89d3383d2fdf00U, 0x3cd6afc73cd7af83U, 0xbe1b4970be422333U, 0xbcbdd8603d9b224dU,
  0xbd980e833d79aab9U, 0x3e046d643e00adabU, 0x3db048733e1db851U, 0x3d3e43253bd23ab3U,
  0x3d3ce5b63be07706U, 0xbbf159203ccf8cbdU, 0x3d78f5f13e0b4927U, 0xbc5654fc3e4219fdU,
  0x3de33aac3c441e56U, 0x3daaa3323db4983eU, 0xbd3c1f733ddb4392U, 0xbd1d0d503e34f9d4U,
  0x3dca7a883ddf6a97U, 0x3cde209f3dc573a9U, 0xbe3da2fabe98f1f8U, 0x3d89fcc53caf2652U,
  0xbda65ad53d619f95U, 0x3da3b636bdb4f565U, 0xbcd7e6c63be12edeU, 0xbe36b4a2bb66c040U,
  0x3ccea0a53e04d24eU, 0xbe8551793cd7109dU, 0x3db9b6cf3e1eac15U, 0x3c93b7b63deca69dU,
  0x3e07e2293d2ac673U, 0x3ce08a5b3d901200U, 0x3cd9dc413ddcda0dU, 0x3e003c643e009ea8U,
  0x3dab605d3d5bf88eU, 0x3c13cec73de340fbU, 0xbc591f3cbd9a8f5aU, 0xbd652146bcc1bc61U,
  0x3c0cac2bba37813eU, 0xbd29e9a83d67d213U, 0xbda5ced73d4e92b2U, 0xbd9f9741bdac38c1U,
  0x3d0e47f7bda82a26U, 0xbddb8dc93da4e3a3U, 0xbd75f32d3c49a7fbU, 0x3da7b64f3d019126U,
  0x3d3837e63a994d02U, 0xbd88f261bc3a4ac2U, 0xbdbf9ac23e03ed33U, 0x3d367b6e3c063356U,
  0x3d9ae09a3de93023U, 0xbb2f757a3d922fbaU, 0x3db6d1553d5d8ba2U, 0xbd9c949b3d1e7a98U,
  0x39bb00a7bc929eebU, 0xbd9acbf4bdeba109U, 0xbe1c0c5e3cb293c5U, 0xbd53987bbdaf1473U,
  0xbdb6f060be4fdbf9U, 0xbde576bebc5cea6bU, 0x3e3103dc3d833354U, 0xbc5fdab93d1c0556U,
  0x3d813947bc810dfcU, 0xbd8061193d7523d5U, 0x3d51bc5f3e0ca9b1U, 0xbcb842fb3d96fe11U,
  0xbde2a7e8bd280a42U, 0xbd13465fbe155d83U, 0x3db962a03daf9284U, 0xbd2eb2b6bd05e4b1U,
  0x3d5b7a83bd07ad5aU, 0xbdbb7ca2be0d13c2U, 0xbe8fd4eabd9e1689U, 0xbd66e17bbdfe1730U,
  0x3db04e07bd5f006eU, 0x3e000a9ebc083a54U, 0x3dd98eb73de19e8bU, 0xbd5636d13dea6e0aU,
  0xbdbf851fbdd426adU, 0xbe79c970bbd34771U, 0x3ec2c553bd744473U, 0x3cdad7913e17def0U,
  0x3d6b977bbc914807U, 0xbd628e19bb71e06aU, 0x3e078727bd9ce8b2U, 0x3d8cd161bd3a1137U,
  0x3d5abeecbc00153fU, 0xbe94fdf5bd276186U, 0xbd284781bd6ad2ddU, 0xbc219697bd3de83aU,
  0x3dc80617bdbe30deU, 0x3d23c6f73d3e993cU, 0xbc620909bde9a3cfU, 0x3d518334bdf6bab5U,
  0x3c75010cbd371285U, 0xbbdbf126bd4a2f6aU, 0x3dd3be56bdae41f0U, 0xbd69f39fbe22df16U,
  0x3d54df5a3e21a85bU, 0xbce9a3393cfa432fU, 0xbe3039a0bebb7d59U, 0x3d995fb93d58add4U,
  0xbe47917dbd48b550U, 0xbec375bebd349c21U, 0x3e0be4d43e128226U, 0x3e08af163e29eac1U,
  0xbd91e23dbe2f044fU, 0xbd01d6bebd40bb97U, 0x3db9b19b3d22451bU, 0x3d0fbbd8be24c963U,
  0x3de1f0003d248abfU, 0x3dda1162bc841211U, 0xbcd19518bbcbd9e7U, 0xbd9714aebd91d418U,
  0x3dc40f6b3da0908cU, 0x3da26a17bcc524bdU, 0xbdd701a5be4ebe01U, 0xbd54eacb3d205a86U,
  0xbdef9dc5bd92d2deU, 0xbe2d02a8bdf92726U, 0x3c4603013e172fd1U, 0xbe2bb2a0be15d904U,
  0x3a275da2be9645dfU, 0xbe96efedbc59f014U, 0x3e119b993df569b3U, 0xbe21f2f13dbdb2e6U,
  0xba424d8a3c06df3aU, 0xbcad774d3ddb2d0fU, 0xbd9b39bc3d0edd8dU, 0x3d8b78433db196b4U,
  0xbcbdaaaabe0aa2d0U, 0x3cbc823dbb849e15U, 0xbb70a50cbdb480baU, 0xbd78e710bca7f5c7U,
  0x3be579d63de4c889U, 0x3be8c04ebd963f85U, 0xbd4b4504bd32982cU, 0xbe0d29e7bdb88722U,
  0x3dda59613d9a06dfU, 0xbdaeb6e0bd422c69U, 0xbdc7403dbdec6448U, 0xbc3461473dd93607U,
  0xbc90bb6dbcee30b3U, 0xbcfa8f8e3cbd3c16U, 0xbd9798853d915264U, 0x3d9d884d3e5426e2U,
  0xbcb768503ca3ac46U, 0xbd48155b3d7c1c8fU, 0xbc39bba13d8f1b65U, 0xbd9796303ca87d24U,
  0x3d8bb2b03d33eefdU, 0xbdbe827dbcbd2621U, 0x3cc2348e3d11f96eU, 0xbc85282f3c8c96acU,
  0x3e0aa7973cef815dU, 0xbd02afecbccbf6d7U, 0xbdde4151bd36c8b2U, 0xbc2a49b23d6d9760U,
  0xbd66a8533dade3cbU, 0xbdd2e4343d91f281U, 0xbd4d9ae1bdaec967U, 0xbd97052f3d1a7f45U,
  0x3dab1febbd303f7eU, 0xbd1a0a373d4176ebU, 0xbc9ef462be082ec1U, 0xbd5c73103abbb986U,
  0xbcf0c4fb3c99a7abU, 0xbdef2a053c3e6d8dU, 0x3da1763bbcd1d898U, 0x3cf6aafc3dee2f0dU,
  0x3d60903cbd050f0aU, 0xbbe388e83c86dacfU, 0x3d1ae45fbe0dde31U, 0x3dd21c44bdf772a6U,
  0x3e077da93b0c3b61U, 0x3cd74b703d528460U, 0xbd1e295a3c3a67c4U, 0x3d809502bd5413deU,
  0x3d1b9f4cbc3c1a0aU, 0x3d4162cfbcd2dfdbU, 0x3c37f7f03dd61ab1U, 0xbd8c3cdebcfc4d13U,
  0x3d6e2d2ebd295e05U, 0xbe318d163bd66cf4U, 0xbdc8584cbd207287U, 0xbdcb7685bcd3d9e5U,
  0xbddf3c88be014a03U, 0xbd107f7f3decd26bU, 0x3d8f212d3c42094cU, 0x3df2d8983bcecd19U,
  0x3dd61062bd8575f8U, 0x3ddc67ab3d476562U, 0x3d5230debdbe149dU, 0x3de2de0dbe1f3bc1U,
  0xbdaa1d9abe1cc410U, 0xbd2ef5dcbceaba9bU, 0xbd922e88be0da5acU, 0xbd0590bbbda85d4aU,
  0xbd5a1c98bdbf98b2U, 0xbd88dced3db8c4d3U, 0xbd4b8aebbe2d857dU, 0x3d9e0ab1be3a8a03U,
  0xbddc80cebec72cd4U, 0x3e25befc3d12dc0fU, 0x3cb4ec10bda4a66eU, 0xbb81399cbdc96930U,
  0xb7d85e46bcdcbc81U, 0x3c95368cbb8c3a0aU, 0x3e4f8f98be09df8aU, 0xbd527dc3be8c251cU,
  0x3cd8fe44be82cce9U, 0xbd2c3fc63cf159bfU, 0xbd26ba3bbe02c6eaU, 0xbd8eb8dbbced30efU,
  0x3c708868bba07058U, 0xbe39426bbcb1533fU, 0x3e2382e43d7009f6U, 0x3e144ac33defaecbU,
  0xbe09fd24bd131f5bU, 0xbb5bdc8dbd51b04aU, 0xbd9d78bbbea00c8cU, 0xbba94641be1b05deU,
  0x3c9c442c3de9b541U, 0x3dd15b59bcdf1e99U, 0xbdb00be73c4bb4acU, 0x3d9c8314be96d635U,
  0x3d4591bd3dd51683U, 0x3dab8ff03d91e992U, 0x3d8f9734bcafe8e3U, 0xbd3f37fb3ded4b7eU,
  0xbc06671dbd15468dU, 0xbcc1ac243d405706U, 0xbbba04b33e2ac683U, 0xbd1f3bcf3e050a7fU,
  0xbc54449fbc40cb82U, 0xbd4dbcbb3da2864eU, 0xba60dfc03df0ddaaU, 0x3d9ee1fbbd27c3dcU,
  0x3a0cbae23c999105U, 0xbd7e414c3d2889fdU, 0xbead9db63cc907e0U, 0x3d81cf3bbde07543U,
  0xbb9d7d483e03db18U, 0xbda354ba3d48385dU, 0x3d94a1de3e228234U, 0xba2bf9803d16a8fbU,
  0xbcaa878abd09079aU, 0xbcb90ac3bcf48f29U, 0xbe2604c8bde62026U, 0x3e072625be1544a6U,
  0x3b89cd20be1ff945U, 0x39697815bd20d19fU, 0x3df15c313de8ca6fU, 0xbdfccaf53d896b90U,
  0xbdd410aebd92b2c1U, 0xbe41dbaa3d0a0af2U, 0xbd828a203c506aadU, 0x3d8907623cd48344U,
  0xbe155225bd9baaceU, 0xbe2a30e53c13aa4eU, 0xbe828a0cbe2d11c8U, 0xbd52b2e6be4c0cbbU,
  0xbdfc7279bd8069e9U, 0xbcbc8b68bdcea7c9U, 0x3dc95ae7bd086e6eU, 0x3e7857593dd03cb1U,
  0xbca32c173db6ed78U, 0xbd90179abe164225U, 0xbe12520dbe1601b8U, 0xbd4c0f513c795957U,
  0xbd9cacc43d41fb89U, 0x3cadf817be05efbaU, 0xbbdcb772be074dddU, 0xbd948bd6be4ab6f5U,
  0x3c82a1343dc4f20fU, 0x3dd244523e002038U, 0x3dd0dcaa3d9c1b97U, 0x3d304cd63d850595U,
  0x3d4eaa823d442469U, 0xbe0785bc3d111106U, 0x3d622fdbbd642ac9U, 0xbc86ed4d3e3939c5U,
  0x3d46084aba9e8b9bU, 0x3cc9f1c93db5a39dU, 0x3dae03da3cc8b418U, 0x3d73845abe360801U,
  0xbc87951e3dfdcf49U, 0x3bc98e313db4302eU, 0xbe4add04bb8bb5b1U, 0x3a357298bdc83b5eU,
  0xbdb6e58b3dca76c4U, 0xbd826489bd3b5b89U, 0x3d95ffff3e3d2a8eU, 0x3d3a9f263e1ada88U,
  0x3df385e9bddf5ddbU, 0xbdfd550e3daabaa7U, 0xbd065a423cf63f90U, 0x3e30c743bdf2f2c2U,
  0xbdb2b39abd83405eU, 0x3d9aa9843be0c273U, 0x3d8c960a3d43b7d7U, 0x3d817d0cbe497062U,
  0x3df292cebdf095b8U, 0xbd8c4f063d910ef2U, 0xbe6febc5bd6fe818U, 0x3d6e2f13be118281U,
  0xbdc6b8a9be34d2c2U, 0xbcc88ab0bde957a4U, 0xbe90bc52be2efd31U, 0xbce54b4cbe2966c1U,
  0xbe1953e4bdd90f1bU, 0xbe55d0f93d3947f8U, 0x3e29a872bdc0a166U, 0x3e5828563d8f21caU,
  0xbd12c3e0bdd1f82bU, 0xbde919c5bcd40b71U, 0xbdd891debde2e0a1U, 0xbd97511fbd034dabU,
  0xbd0fb9c3bcf351deU, 0x3dd16f56bc4268baU, 0xbc542ddfbb5c1d6dU, 0xbe11c640bdfce7e6U,
  0x3c8cee493cef3e40U, 0xbda6346f3d79db60U, 0xbe241e52be131f41U, 0xbc3d7d58bd961896U,
  0xbd9dfbd5badab95cU, 0x3b8d2aa0bd6e71f2U, 0x3d2aa4a4bd6f840dU, 0x3d69fe813d58afbcU,
  0xbb1728373e3dd499U, 0xbea2fcecbd788c6bU, 0xbd27f449bd2abfbcU, 0xbe18c6db3dce2851U,
  0xbe4cac5a3c96b382U, 0xbe0295d8bd06e7f4U, 0xbe7bb5ed3db1dbe9U, 0xbd32de18bd3b49bdU,
  0x3c3b25943e142595U, 0x3d8b87853bee1a74U, 0x3e0de53b3dc87e61U, 0x3da67f913d798b69U,
  0x3c4a229e3bd7f5d5U, 0xbb0a4f2ebd91ec26U, 0xbb0b80b33dba24d9U, 0xbc5756e4bc34f591U,
  0x3d7fd9fabd8c9542U, 0xbd176e88bd33bbbfU, 0x3cf1d9253d2f0869U, 0x3cd2abf0bd53011dU,
  0x3cda06e03d8a63e2U, 0xbdb271a43d981271U, 0xbe0606873d22eea3U, 0x3d1d8b97bdfea84eU,
  0xbdb7768b3ca2fe7aU, 0xbcbb9361bda20569U, 0xbd2b017e3e491af0U, 0x3bc78e803dab3b04U,
  0x3d985639be2ed934U, 0x3dabfbefbdc40ef5U, 0xbe985c52be13ead1U, 0xbdd7cd0fbd84bb47U,
  0xbe01a6c1bd429334U, 0x3a0ab61abc8d35d9U, 0xbc9c6e4b3d014c89U, 0xbe03a310be122b51U,
  0xbc5be659be13957dU, 0xbe47afc2bda2904eU, 0xbdb2ea5ebe33d926U, 0x3d324e14bdf44a3dU,
  0x3c59142e3d02cd80U, 0xbd49a8693d602defU, 0x3c503e96bbb9e17bU, 0x3c7a6280bdacc392U,
  0xbdbc36d83dba9a4dU, 0xbd430e3a3c4344d3U, 0xbd3e8ca2bd3d2846U, 0x3b1d67cc3dac1d52U,
  0xbd25f6993d41ab16U, 0xbe263f5abd75d0eeU, 0xbdcac389be267d36U, 0x3c7a8daabd5e4546U,
  0xbe11a39d3c4b4c1aU, 0xbdc3362abd6daaa5U, 0xbec1a0573c57cf48U, 0xbb414e49bdbbdce8U,
  0x3dd49c623e044a82U, 0xbc91d5c0bbcfa1a7U, 0x3e2c8bec3dec1974U, 0x3c26fee83e05972cU,
  0x3ddd74a5bc82ab54U, 0xbda47ce5bcad4038U, 0xbe9daa0abd22965eU, 0xbeb5c43dbe11e5adU,
  0x3d6b3a1bbdffae79U, 0x3d919b7c3dd41b8fU, 0x3da5c0813d4d08b4U, 0x3d2af8ef3d2acd5cU,
  0xbd8c3e343ccbf75fU, 0xbe014ff83d1ab934U, 0xbe86fed1bd20bc7cU, 0x3d6d7b85be15d728U,
  0xbdcdf98abd9ff56fU, 0x3bc88470bcef8525U, 0xbd138fe1bb2f64daU, 0xbceaa2203dba87c6U,
  0xbd9b83bcbe23bfcfU, 0x3dd5449ebd94846bU, 0xbc4a34a63d0317d6U, 0x3be97e4f3c1a2eeaU,
  0xbdfdbc043dc792a1U, 0xbcfbd7d8bc4ef0b8U, 0x3d8f6637bdb45cbbU, 0xbde3a15bbcf0773bU,
  0xbd265126bd96441aU, 0xbe48b9e2bdda3a5dU, 0xbd89f992bd8a7b63U, 0xbd8c80f83c84d4edU,
  0xbd9eaab23daa73deU, 0x3dc65c3a3deab991U, 0x3dcef904bca9dee4U, 0x3d3751d2bd9685e8U,
  0xbd7a224c3dbfc6ffU, 0xbe5cd56a3d020e03U, 0xbe1a42aabc65e186U, 0xbe32b1713d98f062U,
  0x3b9481bcbc99907dU, 0xbdfcfbd8bc27bf43U, 0x3de25c5cbcf9bbc7U, 0xbd164bfd3d2bbd77U,
  0xbdbfcefa3cf14fb2U, 0xbdbbe39c3dd67202U, 0xbe4396b8bbf947d1U, 0x3d44a193be6ea3e4U,
  0x3d1ca148bd0e78c2U, 0x3d4e6f61bd39192cU, 0x3e04a82e3deccdf1U, 0xbc7cd5c03d9483e7U,
  0x3ca89ccbbdac415cU, 0xbd4b8296bb37e276U, 0xbe350e633bf45095U, 0xbe1495bdbe0a03fdU,
  0x3cf52279bd8a6b94U, 0xbcc0deb13c8b4dbfU, 0x3d05b5643c0df9b4U, 0xbd775cb9be01d9a3U,
  0xbdfa9387bd9f2105U, 0xbdf73fca3d1e3157U, 0xbdea5bfebd8862f2U, 0x3dcf7187bd8b77f0U,
  0xbc9535d53d3e19c0U, 0xbcefffea3b8b38d3U, 0xb934b6eebe1c3002U, 0x3caa8280bce9cb17U,
  0xbc0fb5a03dab77e1U, 0xbd1da7dfbd915f44U, 0x3e0eb867bcea55a9U, 0x3dcc6bd83de3735cU,
  0xbd11baf63a8c2146U, 0xbda42f70bd40b482U, 0xbde04b8bbc41595cU, 0xbd40eac53dfcb989U,
  0xbd1ce03e3d3e587bU, 0xbcb195d9bd50d67aU, 0x3dfa3d8f3decd7ecU, 0xbd3ca51b3d29f116U,
  0xbe40eba6bd9e87b6U, 0xbe1b851abe5b688cU, 0xbed062f9beb218c8U, 0x3ce7f254bc89f7e5U,
  0xbec709dbbe094bc9U, 0x3dafab1dbe5d1f6dU, 0xbdbd7696bd28bf3cU, 0x3cfb3ca5bdbe16d1U,
  0xbd98fb973e083995U, 0xbdadc1e3bea42787U, 0xbe58b9f2bc8ff398U, 0xbe8dc9473dded3e0U,
  0xbe9ed87bbe1f63c8U, 0xbdbd2805bdf48716U, 0x3e36e4bc3dcf1dbfU, 0xbe09cd063d9bb326U,
  0xbe4017c23cf893fcU, 0xbd5bf69fbe0efe04U, 0xbe4f7af2be06e836U, 0xbd48696bbdd810aaU,
  0xbe632532bda3169fU, 0xbbfe033ebe02a9beU, 0xbdf9b94abcefc05fU, 0x3e226956be028c22U,
  0xbd8fce52be102480U, 0x3d516127be2c70baU, 0xbd1f2c3b3e4d34ccU, 0xbd7677653cf891b6U,
  0xbe34cc91be376d4dU, 0x3c91e7eabdb858beU, 0x3e1fb5cebd55a791U, 0xbd7e10063ccee742U,
  0xbdf5192fbd300f40U, 0xbe1b19f1bddd942eU, 0xbe0c13bcbe5f6f45U, 0xbbae6380be8c4542U,
  0xbda52678be211b34U, 0xbdba5b6dbd12480dU, 0x3d2f3422be331036U, 0x3ea8d3843d2a3042U,
  0xbe0b59f2bdf11da5U, 0x3e27cc84bc0b163bU, 0xbd9130bd3cb79ea2U, 0x3cf1e4693d509185U,
  0x3cac835bbdf3318bU, 0x3dc25455be12338fU, 0x3e96be97be0f880bU, 0xbe0afd65be0f21abU,
  0xbd7e89df3c448ce3U, 0x3cfb42763c96dc5dU, 0x3b7bdea9bc243e2dU, 0x3cd6f5803d07d8b2U,
  0x3c7ea4443d568d75U, 0x3e056089bd7417fbU, 0xbd9d0ddbbdadc7a4U, 0xbd83d825bdd96712U,
  0x3d7d6f333ca99100U, 0xbce9b8743cc52638U, 0xbcbb50943df94be0U, 0x3cd74f6f3d3d90d4U,
  0xbc9e83f63d01aefcU, 0xbc42ec7f3cd80230U, 0x3c8d2ae9bc13487dU, 0x3d86094c3d9b4663U,
  0x3e061c533d2138e8U, 0x3d809cf03b239696U, 0xbdac36a4be3defefU, 0xbda6b1433e1cd953U,
  0xbe407dd93dba9594U, 0x3d0dd9983d4278b5U, 0xbd1d07e13ddb8aceU, 0x3cd29844bcd0fb47U,
  0x3cc0699b3d6ee998U, 0xbd4ce6933ca24b78U, 0x3dbf83c73dbc4524U, 0x3c7716903bed3da1U,
  0xbc01eab3bd6799b9U, 0x3cb30fcebc24c2f4U, 0xbceda39fbadf900dU, 0x3d64394b3d324862U,
  0x3b7f214f3d90d7f7U, 0x3df5f0cdbb3b3a0cU, 0xbe866ccebe5691e5U, 0xbd9a76f63d5bc99fU,
  0xbe8925083daa9519U, 0x3b28142dbd9ee8c2U, 0x3ce412aa3da7c4a1U, 0xbd94473cbda4f685U,
  0x3bcfd545bd46972eU, 0xbd887160bdea7677U, 0x3e24703b3ded4b8dU, 0xbc4e31303beff718U,
  0xbc7393633cf880adU, 0x3ced03fe3d813fa6U, 0x3dcdd5503e112755U, 0x3d0effb83e305352U,
  0x3e0d30833d8c0b03U, 0x3daf1f793dcb2248U, 0xbcd1a52d3d2192e3U, 0x3d27a3863e02c2e4U,
  0xbd6dc8b6bca939a0U, 0xbd7e6793bd7b87a1U, 0x3d6aea1a3dbdacd2U, 0x3bc241a43d1fa6e9U,
  0x3da961a33d136b7bU, 0xbd847d993e0903ceU, 0x3da3ee653e0084bcU, 0x3c4c5b463e030655U,
  0xbd9186c2bc0023f2U, 0xbd83c1dcbba72cffU, 0xbd3886f63e222eebU, 0x3de6bca33d2f3fd9U,
  0x3c7d3e653e05c822U, 0x3df762e23e019af8U, 0xbe190a2cbe48b7f7U, 0xbd491f40bc9b00dfU,
  0xbdb10b243af92ae2U, 0xbd2f281b3da3e018U, 0xbcc3e63e3dbb3d60U, 0x3e6512afbc1ea3abU,
  0x3d668455bdf3f5cfU, 0xbdbf7346bd0bb3beU, 0x3d41353b3ccfa524U, 0x3db3d47b3c9c1a1eU,
  0xbd84a4c83dac67e1U, 0x3d2b7ec0bad87518U, 0xbc1e5677bce1547dU, 0x3dc221433cdec607U,
  0x3d189ba7bc8a2a5bU, 0x3e01035c3cde9795U, 0xbd7fb0febeb30ceaU, 0x3c7c14403d7e648eU,
  0xbd0b8a5dbcc694e8U, 0x3d702ae63df0eee7U, 0x3dbc262f3da870a8U, 0xbd2e9ae6bda01657U,
  0x3e2e6fd2bd3ac451U, 0xbd40ccef3b9519fcU, 0x3d1f5a973e05e280U, 0x3e40d2fb3d97b614U,
  0x3df1091c3cff8e58U, 0x3e22c9333d6972d0U, 0xbb3147933c536fa6U, 0x3dacfe353e0d55adU,
  0xbd8a7fc53d5aa16fU, 0x3cea2eb6bdb0440cU, 0x3d82eb2f3daf5912U, 0xbc9f97b4bd7e9ce3U,
  0x3d59b697bd013a1aU, 0xbddca3b7bdf9a4e0U, 0x3ddcbd28bd17a76fU, 0x3e4eb7833cecfc13U,
  0xbd8df43b3b9acad7U, 0xbdc6579f3c9c515bU, 0x3db614193ddefd96U, 0xbd7ee7b9bd56fd42U,
  0xbe074aa63cb5e6b9U, 0xbd874f28bc852cb9U, 0x3e43883d3c9e67edU, 0x3d807cb7bd5b8ccfU,
  0xbd076d0a3d8b01e6U, 0x3b0b7d4f3d4d59dbU, 0xb9fba99439fd9ef4U, 0xbd9692603d841f96U,
  0xbdd23cefbae54b68U, 0xbbe384dfbdda38a7U, 0xbc457f4f3d1353c6U, 0xbe1bd0573d3589d6U,
  0x3df1c96c3e4ddfa5U, 0xbc0183713d18de88U, 0x3c7bad96bd52f6d5U, 0xbd9846453daf5f80U,
  0x3cc0c440bce33e45U, 0x3cc2196d3d762139U, 0x3dfe7d943d4edc74U, 0x3cc446183dd2a2beU,
  0x3d8e05c3bd821057U, 0x3cbaf0ce3d2ab9b1U, 0x3d14ded0bd40b636U, 0xbd51080b3d5b6f57U,
  0xbd18b4f03d9c38abU, 0xbc9e4c693d177f81U, 0xbe66490cbce80c05U, 0xbe611688bda39c08U,
  0x3e27907e3dab6c83U, 0xbdebe7353c3b9385U, 0x3c5a6bb0bdb1db48U, 0x3d427d5d3dcdcb89U,
  0xbe034eab3dcee698U, 0xbe1e15ce3c42257aU, 0x3d1525813d1bbd32U, 0x3cb46b083db4b011U,
  0x3c7f00743b802ef0U, 0x3d56ea5fbd4594daU, 0xbca19bc0be38e3c7U, 0x3c9509d43d3476fcU,
  0xbdc2e11b3c13542eU, 0xbdf26e963d8f80f5U, 0xbd765aa8bce8d6f3U, 0x3be08f983c0a8859U,
  0x3e2302f3bd89ad64U, 0x3d61dfe1bd814392U, 0xbc42326b3db9f23dU, 0x3daca1a23de456a8U,
  0xbbcbe77dbcef02ecU, 0x3c971bbc3dc7559dU, 0xb80947d83c4fcbbaU, 0xbd16c56e3d9e5689U,
  0x3d4c3ceebda5269aU, 0xbd11662e3db56a8aU, 0xbb25e4793d1b376eU, 0x3d99cfb1bc972515U,
  0x3e0801a93d3ee7bfU, 0xbd7144dbbd8b26e8U, 0x3d8bec38bce5e6d8U, 0xbc9d487bbda96618U,
  0x3e0023783d2e9c19U, 0xbd227a34bb587e88U, 0x3c172c18bd87a542U, 0x3d957b70bd4929b7U,
  0x3dac80e53d18e687U, 0x3cbcddda3d859ce3U, 0xbca323e33d54ed5bU, 0x3c2f623e3cb30293U,
  0x3db5952fbe1a888bU, 0x3d25992c3d6970f5U, 0x3d04a3e9bd837b4eU, 0x3d4e083abdc1399eU,
  0x3c8307803d580091U, 0xbe0c721fbbe2468dU, 0x3c98e4acbd9de408U, 0xbca94dd13d806570U,
  0x3ddfc974bdf28f9bU, 0xbcd52030bce58ee8U, 0x3b37b894bdaedbc4U, 0x3ca73d65be6fcc05U,
  0xbd09e7303db30191U, 0x3dee870ebb84440aU, 0xbdbb6c5e3ce11d36U, 0xbcb7f079be30ba77U,
  0x3da33c743d4acd61U, 0xbc428b89bdbdbadaU, 0xbdd9e0c0bcbaaabbU, 0xbc82d3e03c4bdae0U,
  0x3d8fa52bbe040f2dU, 0xbe1f7c5bbcaea9a4U, 0x3d015f66bd9427d7U, 0x3e14cb2bbc51c8dbU,
  0x3b87ec94be66c0b1U, 0x3e5991b73d6b5851U, 0x3d4f7c9c3dd8564cU, 0x3e05b19bbd7a8f99U,
  0x3d0ed02bbdd35a42U, 0x3e51758cbd12a840U, 0x3e4deb04bcb338f1U, 0xbdcf8241bda86046U,
  0xbd964b60bd9ca670U, 0xbe14f682bcbe787dU, 0x3c1ea8c5bd037fc8U, 0x3d51170abd277c68U,
  0x3dc8e5b2be352e8bU, 0xbd08c6a43d94697cU, 0x3d154046bd11e64cU, 0xbd88f04cbcb6e6cfU,
  0xbdba8e22bd8f8080U, 0x3d2021bc3d8d3f88U, 0xbdf34ca6bce66d6eU, 0xbc3209d1bd91f47bU,
  0x3d9109c3bd5ec0a0U, 0x3de23fc6be0cb54cU, 0x3db0cddebdce6799U, 0xbe1f0068bd22541bU,
  0xbd438b3bbdfe3d30U, 0xbdc034d8bdf21829U, 0xbe19a8bdbdeef540U, 0xbc43f5003c0e3d76U,
  0x3b244b67bd850f5dU, 0x3ce64821bdb2fdf8U, 0x3d8615003dac1aacU, 0x3c899f813ca1f2acU,
  0x3c7533103c7189f3U, 0x3ccb5bd9bcac7901U, 0xbde0310ebd6c836aU, 0x3ccd95be3d622815U,
  0xbdbe44aabcfaff5fU, 0xbd7ac952be08946aU, 0xb9735e00bdb06b16U, 0xbe16d509bdf127ddU,
  0xbd006971bdacc0eaU, 0xbdc0643bbbc960fcU, 0xbe99e6dcbe2e240fU, 0x3d77022a3c9b2babU,
  0xbe9390de3d3e1ca7U, 0x3d4085afbe48d789U, 0x3df684af3c330e64U, 0x3d9eb5393e3dceb9U,
  0xbd6c6d6a3d733d3dU, 0xbe8e3014be3096faU, 0xbd0884f83c9017f8U, 0xbe243b97bcf93de2U,
  0xbda42a80bc45124fU, 0xbc5af30ebe13e867U, 0xbdced7823daad182U, 0xbe0bcc8e3af74930U,
  0x3c0eafd839db6e60U, 0x3dc687223d7e35ecU, 0x3b8cf9b83e0e8ae7U, 0x3d6841da3cb33832U,
  0x3d8bf0e53d91d01bU, 0xbd32f276bd67d173U, 0x3d7d127c3c899839U, 0xbc5453b53db4c1b3U,
  0x3dc1a2543dca994aU, 0xbe70c82a3dd51330U, 0x3ba4dac9bd8bfc75U, 0xbd7020633c400ee0U,
  0xbbeaeca43e0121efU, 0x3cac9c163da2ccccU, 0xbdae37be3e116596U, 0xbd05f4513d047418U,
  0xbc24e4433d13e852U, 0xbd707c3a3d7576c5U, 0x3d8c26a73d48fc6bU, 0xbd921dbebd2bff68U,
  0x3ccbd2093bac9669U, 0xbdafa7b43d97dba9U, 0xbdf81a203d33f965U, 0xbe5472973ccdf3f3U,
  0x3d5def113cfdbd88U, 0x3b2a79543db812f4U, 0x3c3ffd1abcdde4c7U, 0x3d304553bcf6a466U,
  0xbd7e9efd3d9f8e19U, 0xbdc0ed81bd798e3eU, 0xbd8b2e3dbd984646U, 0xbd6ff530bdfb309cU,
  0xbdb6dd84be001149U, 0x3d0d18423d9925d8U, 0xbe1c6115bd31fb86U, 0xbcccb90cbd554c8aU,
  0xbe4f8cc83dc6c3e1U, 0x3d915eecbc747d9eU, 0xbc50803abd06cb2aU, 0x3d7eb20e3de9d533U,
  0x3d19d8da3d24436eU, 0xbea0a67ebdd3155eU, 0xbcd42e613d89ca28U, 0xbd91d66d3cb3a0dfU,
  0xbcd8d8323d8052beU, 0xbd39738fbd8d7631U, 0xbc81137a3c698dc3U, 0x3d3a036a3d9457c8U,
  0x3dbea887bd920455U, 0xbd102a8e3de96ca7U, 0xbdda7255be09ce7dU, 0xbcb387b63d9dd4deU,
  0xbe0625463daa5858U, 0xbe73ab7a3ce0a43fU, 0xbc1a4c573e08028eU, 0x3afd9adc3dd48b62U,
  0xbdb3a3a53d085abeU, 0xbe943412bd7e5775U, 0x3d4b76dabe1a5dadU, 0x3c3f435b3d4a5200U,
  0xbdaf7fc6bc118b76U, 0xbd5e67473d8a69faU, 0xbe25d7813d36896eU, 0x3d99fb8cbe1e044dU,
  0xbbe5cd033d8f95adU, 0x3e0b6a10bd8303a4U, 0xbe015a96be368f67U, 0xbc5f5c68bb8e8ccdU,
  0xbdb4ec0cbc78e0e5U, 0xbe8571d63a784d6cU, 0x3c7742283dbeb40fU, 0xbd4dcbb0bd783e70U,
  0x3ca905a3bd5c377aU, 0xbd3ea2683c7b60d6U, 0xbd71053cbd406229U, 0x3d5324373d321b0eU,
  0xbe0425b43d9a7567U, 0xbe09caee3daa7f53U, 0xbd341ed23b56dc49U, 0x3d97297c3dc32727U,
  0x3dc83e26bddb4c37U, 0x3d187c703d536f2aU, 0xbe0ecdecbdb86f44U, 0x3d9c31a93d941b71U,
  0xbe08a3343e137661U, 0xbe07fad73d0d650eU, 0x3d9d0f913c6abc20U, 0x3c8823e6bc347f1eU,
  0x3d329a493d8fae55U, 0xbdecc8c0bca148baU, 0xbd5a03fbbd368124U, 0x3daca69f3cb1c993U,
  0xbc2eb97d3d8c12daU, 0x3dbe0f42bd29673aU, 0xbe87c057bce68963U, 0xbcfd5d1e3cdf2343U,
  0x3d7a9e2abdd41aa4U, 0x3d8b1eed3e046e84U, 0xbda51217bdc795eaU, 0xbd8a5d063ce80b53U,
  0xbcc91d4fbc9df171U, 0xbe8dcfb83db5a525U, 0xbdebd46ebb00fa38U, 0xbe25a2a3be13238dU,
  0x3d6e9cacbe0da205U, 0xbdee8649bd033e9fU, 0x3d78ee33bd566ceeU, 0xbd4958ad3ca0acddU,
  0xbe211d6f3bd6884aU, 0xbd6074673e0c6d39U, 0xbdffad74bd7863c2U, 0xbc507463bd4a492cU,
  0xbba4c1423c3f1fe1U, 0xbc68948a3d436d67U, 0x3d935501be43950fU, 0x3d5864e63df66a06U,
  0xbb8e1409bd453e8bU, 0xbdc3e87c3dc9a9baU, 0x3db0b9bebd58e855U, 0xbc82b919bda27efcU,
  0x3de0a3fcbdf02c22U, 0x3e128bd33df34c02U, 0x3bac9d573d7e4f87U, 0x3c8767d93cd3147dU,
  0x3dc141673e0309d7U, 0x3dc7e8723ce63142U, 0x3e5a65a43d9683d5U, 0x3ca6f8c63d0363e8U,
  0xba565f27be1b5d08U, 0xbdb6d8fdbdd76588U, 0xbea69c30be4eab54U, 0x3ccda42cbd97d112U,
  0xbe21b25c3cffaa08U, 0xbd482ef3be407708U, 0xbd9b98d6bd3a7051U, 0xbd50ab0ebc8f4ab5U,
  0x3c27e9ec3b2d687fU, 0xbdc0827bbd8a532fU, 0xbdb38662bd4a3200U, 0xbe1072e8bbee50b1U,
  0xbe4a6640bdd5b487U, 0xbda301163ce1eabeU, 0xbe1db639bd56eb5bU, 0xbd749ca73d04dce2U,
  0xbd50e2273bf4b443U, 0x3db1b43f3d1b56bcU, 0xbdf45cf53d2620efU, 0xbd196dd03cb486e9U,
  0xbc931f593d3a095eU, 0x3dd6507cbdbf11dfU, 0xbd9740193d7b07c4U, 0xbe467b25bd9c11d8U,
  0xbd369fd3bd72cacdU, 0xbdeb5fbbbde12307U, 0x3daa765f3da3411aU, 0xbcb1ca493da674fcU,
  0xbdb30632bd1dff9aU, 0xbcf1e4bb3d57c07cU, 0xbca67bf33d84460dU, 0x3db3bfbb3dc2dc2bU,
  0x3d1ed394bd0a1525U, 0x3dc111e53c2ef078U, 0xbde25aa1be752112U, 0xbdaa5d9ebd4e2679U,
  0xbde64a2d3db4fa40U, 0x3d5b77603d39b295U, 0xbe0c2c33bcdddb5aU, 0xbd2a092ebc980ab3U,
  0x3e02b9443e13a1a3U, 0xbd2a883d3b706465U, 0xbda1065b3ccd380aU, 0x3db841803b5d48b5U,
  0xbd5d9d8e3d62964cU, 0xbe04b933bcdaf756U, 0xbd922f943de93907U, 0x3d0aa27a3d7f79c2U,
  0xbde6b984bdb51f4dU, 0xbd3bfd1a3dbcb9edU, 0xbe10d960be2d4a3eU, 0x3d80ba59bc5d2a33U,
  0xbe072f7a3cf166b9U, 0x3da616bdbdaf1ba5U, 0xbd4352153b9a77d3U, 0xbe854c83bc46ef25U,
  0xbbd6358d3df1b7e6U, 0xbea626c2bd70ea9fU, 0xbe247ecabdc27ed8U, 0xbdf32aa83ddae119U,
  0xbe1dc9463d5f4613U, 0xbe4c50433d8051bbU, 0xbe16140d3d7c389dU, 0x3ce48d523c076b80U,
  0x3cd2d4d2bdfd11e9U, 0x3da455b93dab3527U, 0x3c10b8d6be1c95bfU, 0xbcbfa40c3d0292caU,
  0xbce63368bbca2958U, 0x3ce1758a3de2e865U, 0xbe3063e63ce67749U, 0xbe8f3c4bbe1de8a9U,
  0x3e21c412bd21e9bfU, 0xbd4ea9923dcdcf6fU, 0xbdd762b5bcb2b81cU, 0x3d96a0833dc1607dU,
  0xbc69ee9c3dbdc286U, 0xbe314fdf3d75bcebU, 0xbe2ef1bebc984cddU, 0xbd18be6fbcf48d20U,
  0x3e028c1b3a5d3211U, 0x3daf2ee6bce69d5bU, 0x3df625c23bf245daU, 0x3c4031983dbf1890U,
  0x3c87b89b3daee76aU, 0xbe39aa18bca04326U, 0x3d21c32d3dcc27e5U, 0xbc26f5dbbc90e1e3U,
  0x3d61e649bd83e5a0U, 0xbd2da1ef3d56376dU, 0xbd108144bd397294U, 0x3dc4a4ed3d9b73cdU,
  0x3dcda8ef3d9cc484U, 0x3d51849a3dc67531U, 0xbd2fa736bc10dafeU, 0x3c9275a0bdd9cdafU,
  0xbd58d1823d1f7b34U, 0x3cf9d493bc30aa78U, 0x3e04e814bc85a7daU, 0xbd9424a03c9c7e5fU,
  0xbd642ba53dee6508U, 0xbe08b5c13c3a5ed2U, 0xbd27d6813d8f955cU, 0xbe57bbfabda41379U,
  0x3d7553efbce2d8abU, 0xbd69e927ba960be2U, 0x3c619e7cbe2ebb31U, 0x3b328f813d9f048cU,
  0xbde265603b83da59U, 0xbc14e40d3db44e78U, 0xbc8383393d8b37faU, 0x3c84af343c10476cU,
  0x3dbcefe13be9980cU, 0x3d08a8263dca1ed8U, 0x3da35dbcbb49f2a3U, 0x3c3e8bd8bd0cdf77U,
  0x3d2b2e703cdb2edfU, 0xbe0b957b3d1afbacU, 0xbd44e0a2bd1363b9U, 0xbdb54682be33641fU,
  0xbb971ad4be443608U, 0x3dbad2983dbba9a6U, 0x3d9367a8bd9e2378U, 0x3dadffc9bcc3a54fU,
  0x3d8413e43db52387U, 0x3db18c863d0b0fa6U, 0x3d8ca225bdc41111U, 0x3d87f2a03bac7c5cU,
  0x3db19772bd939f66U, 0xbd4ade69bc99c0b2U, 0xbd80285bbd9b1231U, 0x3b3d0a003d36b8ebU,
  0x3d873da0bccc08f9U, 0xbde3e8e83dcaba23U, 0x3d7e60c0bd4b4a76U, 0x3c6c7e103d3875b3U,
  0x3cebc7513d43af7aU, 0x3e0a41f83d76daabU, 0x3d14aad73c6b9b15U, 0x3df5beec3caa410dU,
  0x3ddaa62c3d8b834eU, 0xbc8048853cbe6433U, 0xbbd2c6293d99bbf2U, 0xbd1d8dff3e0734fcU,
  0xbd9c42a9be088b68U, 0xbdaa9ed6bd1d0eeaU, 0xbe14621b3dba0b46U, 0xbd00f356bd3a96adU,
  0xbcedcb9bbca59778U, 0x3a48c0343c8dd772U, 0x3c9fc3f1bc551aa0U, 0x3da0fe913d863edeU,
  0xbdf6874bbd2db0e6U, 0x3d7aa69abd8ad071U, 0xbba18abc3d17349dU, 0xbd14900abe125b9cU,
  0x3c8ca6f23cdb6485U, 0x3c081f10bddf5e49U, 0xbdc81209be12ccdeU, 0xbd7456f7be487b0bU,
  0xbd187465bdd4b74bU, 0xbceb2f9d3bf4f046U, 0xbe889517ba78b435U, 0xbd808948bdc52e51U,
  0xbe8e96bd3d76fa20U, 0x3d36395bbe097121U, 0x3cad08aabd8e3b90U, 0x3dbef3d93dce319aU,
  0xbe10ecce3e06a05dU, 0xbe5b7701bb7129c8U, 0x3da07418bda562d8U, 0xbda8b9e0bc9ea9dfU,
  0xbcd2df56bdba93c9U, 0xbd462552bd5ccf0aU, 0xbe5b1af0bda36413U, 0xbc7fac6fbde0401fU,
  0x3dd31eaf3d3dc96eU, 0x3b8fe7fe3d2bba9fU, 0x3d9c694c3e0b8135U, 0xbb0b5160bd38a2dcU,
  0xbd1f8c7e3cf5c498U, 0x3d38ab5bbb9edeebU, 0x3de0b9523dbb9348U, 0xbd5fd5333d89e9e1U,
  0xbdc245673dc14126U, 0xbe9a727b3dce4367U, 0x3d8cb3473c3c8a1eU, 0x3d09f238bcaebb05U,
  0xbdecab1f3dbe979fU, 0xbd002f213de0b28eU, 0xbe4db8093d9e2f93U, 0x3d9fda39bc877c8eU,
  0xbc80c689bdbb6743U, 0xbe07d7dbbdd86514U, 0xbd90ee11bd8a9954U, 0xbd007f20be18f6c5U,
  0xbdd464b2bd9cf590U, 0x3d8da0b1bdd81d12U, 0xbd77a836bd0a9a1bU, 0x3d77c0063da15425U,
  0xbd893c7cbb3efc21U, 0x3c482053bd9a36d6U, 0xbdf333443debf87cU, 0xbcbfbdb93d5d650bU,
  0xbdd71ca2bdba4490U, 0xbd633cecbd0ab66aU, 0x3dcac2a3bd0df246U, 0xbe04f7753b4eff46U,
  0x3d791723be27ef7bU, 0xbd86be563de062daU, 0xbead0e7abc77deaeU, 0x3c471818be09b352U,
  0xbe9520fb3beaf506U, 0xbdabf8243d818ed8U, 0x3d99d4e5bc1cc3e8U, 0x3d2faaca3d152b6bU,
  0xbdc7568abc127be3U, 0xbe4432d0bd55d8e9U, 0xbc658a70bdd52b99U, 0x3d5a1d00bd376a8eU,
  0x3daeb8dcbcd45e5cU, 0xbc9ef326bd4a683aU, 0xbe0e55943d909278U, 0x3d62cce5bda1f040U,
  0x3d2246583d3369c4U, 0x3ddb0d073e153c28U, 0x3d0fd5b63e2e8a94U, 0xbccc29d6bc91b6dcU,
  0xbdce46b23e12e337U, 0x3d2f6f773d281a5aU, 0x3dc27fd83d19412dU, 0x3caa363c3db4ff30U,
  0xbd651ac43cce6f22U, 0xbea88022bc81840eU, 0x3d76c4d8bd992ca0U, 0xbd1b9152bd84642fU,
  0xbdf236bf3df67762U, 0xbcdadb8a3e018fd7U, 0xbe8e619e3e01ec0dU, 0x3d28eb13bde58b24U,
  0xbce50fbcbe1647c7U, 0xbcf737f5bda650faU, 0xbd5527783e06d8deU, 0x3a7ad680bd381ffbU,
  0x3e22c006bb22a742U, 0x3c6f5fb2bba020e6U, 0x3e3cd495bd903722U, 0x3e2a5f0cbc3365f4U,
  0xbd3ee0a9bcfbde05U, 0x3df4e650bdb0e768U, 0xbd2e0d43bd45721eU, 0x3d27783dbd6d39cbU,
  0x3e111f88bd5cf2a6U, 0x3dc412ebbc632bc1U, 0x3dae8f70bcaf7544U, 0xbddc3138ba2fd3fcU,
  0x3a9ee7e3be26c19dU, 0x3cfb04fc3d293d8fU, 0xbe887205bd520273U, 0xbb1f0f00bdfc5875U,
  0xbe21c0e93cd4bfaaU, 0xbd3b37ae3d2f216dU, 0x3d613d583d7edef0U, 0x3d71c2943e00342eU,
  0xbe0ff8383dce0392U, 0xbea2d681bd36cad7U, 0xbd2ce969bd82e13fU, 0xbdc2405d3b6eceacU,
  0xbdaa4d9cbce5d944U, 0x3c459991bd422471U, 0xbdbb58b03c25df5fU, 0x3dc2a5b53d32bfceU,
  0x3d1eb13d3cf19ab1U, 0x3e22fb0a3e22d0ddU, 0xbd55afc63dff8024U, 0xbd49ba003d99a918U,
  0x3ce3d18f3da4e56cU, 0xbe6a1f773b1f7578U, 0xbcef19273da458eeU, 0xbd1419ef3dfd6e63U,
  0x3d2385833cc3e592U, 0xbe59fa0c3d2ffd8eU, 0x3d9aba1fbdcf4c6eU, 0x3dbc10d9bd4aa1abU,
  0xbdf356e63d0f4fcbU, 0x3db181dc3d5122feU, 0xbe9445cb3c6b979fU, 0x3d6684ebbddc6b63U,
  0x3d88a94e3de965fcU, 0x3d202f4f3dec665cU, 0x3dcef21b3d8904c2U, 0x3c7bf3a83c9b7fadU,
  0x3b64e8713cb29fabU, 0xbe3d3e483c5a3273U, 0x3bf1aa453d875231U, 0x3d676b48bd62547eU,
  0xbccb7ee6be893784U, 0xbd09fc2a3dd43473U, 0xbb291ec53d8f9c4bU, 0xbaaea0a6bccf116bU,
  0x3da3762a3d5d6223U, 0xbdb7514a3c8c7cd5U, 0xbe0f8dd8bccc0050U, 0x3e051ac7bd733622U,
  0x3d5a9115bd3a501dU, 0x3cd7801c3c9679dbU, 0x3d2ccc123dbfb5f4U, 0x3cedb3343c96daf9U,
  0xbc9852dd3d44cca3U, 0xbdae1770bd3ab6d7U, 0xbd5a11ee3d981cc9U, 0xb917a470bc553aeaU,
  0x3d2aeab33d827eceU, 0x3c9e30133cdf2af4U, 0x3cdba26bbdb6f1d8U, 0x3d3288863cd6da98U,
  0xbcf16449bd06df2eU, 0xbd68ae703d460cc9U, 0xbccc0e73bd42701aU, 0xbd48f3e9bd5db0bdU,
  0x3d79b6edbd06b011U, 0xbc5376af3dc6c874U, 0x3b11d8173cba19eeU, 0x3d731ad23dc8bacbU,
  0x3e10bb503b8d54a2U, 0xbc1894d1bd14d5b2U, 0xbd9ef4f5bcad75fdU, 0xbdca3bf73dfe7848U,
  0x3c8cfe813e165bcbU, 0xbd044f083ca25827U, 0x3c9ada31bbe299e1U, 0x3d6395dbbd7784c7U,
  0xbd969e903d6d5cc2U, 0xbd42c15b3d68aef8U, 0xbddb5f973d98cd98U, 0xbd098c533d0c0397U,
  0x3d6ffe4dbd12482cU, 0xbcbcf8fd3c87cd57U, 0xbdddbbd8bd2fd4caU, 0x3d336fb2bda2e4f0U,
  0x3cd67f5ebdfa182dU, 0xbda839c13d2f1a6aU, 0x3dfc8b6b3d62002fU, 0x3de22b773c62419eU,
  0xbdecb9f4be30e47fU, 0x3df15e0e3d4dc796U, 0x3c90c61ebe028f1cU, 0xbb4d2e68be69c431U,
  0x3daf639b3d025793U, 0x3e34c582bc97bc09U, 0x3e27c4abbd72eebcU, 0x3d27e9cabec5bcebU,
  0x3db34081bcb74d5dU, 0xbccab5b13d14097bU, 0xbe0f3b02be1adfdcU, 0xbda18a18bcf7d0c4U,
  0xbcf0001bbd61b5a4U, 0x3c569b9c3d30b31fU, 0x3e1d2a963dd2482fU, 0x3d6ca792bc0c995aU,
  0xbc543384be2f8c15U, 0x3d96906a3d27dc28U, 0xbce5caa9bd8664e4U, 0x3dd4ba0dbdfa0830U,
  0x3c9102313d923655U, 0x3e03b4383ca9d398U, 0xbcc68514bd82097cU, 0x3d8706c8bde38490U,
  0xbd976a02bd2eeba9U, 0xbcdebfb23c29ebe0U, 0x3e28ce913d2f2719U, 0xbd48dbb03bce53b5U,
  0x3e168ef1bc82a031U, 0xbdbda9c13d996879U, 0x3ce5f9543d12bf7dU, 0xbdc2de29bda1079aU,
  0x3e7a6061bd32c055U, 0x3e0f8cc63daa301cU, 0x3c456900be708b5fU, 0x3e1fc0bfbd09bc54U,
  0x3c56357f3d77b412U, 0x3bb43fa1bc13aff2U, 0xbc05452bbc2ba08aU, 0x3caf55de3a85a972U,
  0xbe1ea2643dd28102U, 0x3d3ffae4bce36aeeU, 0xbe425b86be43bb4fU, 0x3d970a813da1bfb7U,
  0xbe726c22bda8cf17U, 0xbbfe45fcbdbe6285U, 0xbdf1dd3ebdd9c1b1U, 0x3da38f40bddd3bceU,
  0xbe720b0fbc05e538U, 0xbd6c372abde23f38U, 0x3dd404283e8bffe1U, 0xbe03cad53e09ac42U,
  0xbdcc36c8bdbbe279U, 0xbe23a64abcc3c331U, 0x3e8f85f13df1f6d5U, 0x3bb44e763e09d938U,
  0xbe0f49d7ba8e41e3U, 0xbe0d2b7abe49f66fU, 0xbc983fc9be458ecaU, 0x3c3cf3c0bde09bb2U,
  0xbdece49bbe889936U, 0xbd9c351fbc1a3c5aU, 0x38960a48bd7c97a4U, 0x3e10bc1b3c239ae2U,
  0xbe89c9cdbe695f99U, 0x3e47d1adbcd36b56U, 0x3c78e7d23d9f1b31U, 0xbdd71f4c3d9837b1U,
  0xbe2d9195be4cdd2bU, 0xbcf1f4bdbe4f316dU, 0x3e9dad94be18efd2U, 0xbdedd95f3d07a38aU,
  0xbe450f22be9133fbU, 0xbe12d6eebe0f7d3fU, 0xbd9edc92bdff7f6eU, 0x3d0787dabe5c436fU,
  0xbd562aadbe7758baU, 0x3d8f7f0ebddd3133U, 0xbd43e22abd2859d8U, 0xbe5d8ce7be1f2b1dU,
  0xbe90ee9bbe15594dU, 0x3d122f50bd2a5b97U, 0xbe59a83e3ba4735bU, 0xbd152220bd910e44U,
  0xbc8164b3be3ae976U, 0x3b9cee45be69eb2aU, 0x3e2d2be2bddc1c3eU, 0xbe26ee813d2cbf43U,
  0x3ce3bd58bd623bdaU, 0x3b192825bd5cfb04U, 0x3ca1c954bccb2f4bU, 0x3d0e5046bd9ecbf2U,
  0x3d25f304bd5d4b15U, 0xbddd8af33d003b57U, 0x3d9a972b3df59249U, 0xbd52abdfbdcb8eb6U,
  0xbd90c2673c9c4f3eU, 0x3d7e1d723cc8ba2fU, 0xbd817d53be12b41eU, 0xbd89e03e3d62b5a5U,
  0x3e401ae6bcbf8bf9U, 0x3cbf8ca4bbf4a5f0U, 0x3d2333a53bf3f028U, 0xbd4da581bdfb075eU,
  0xbd8183b03be8e093U, 0xbda9d6023d0d85aaU, 0x3d57bb23bdc6df47U, 0xbcc78fecbdbbe453U,
  0xbe1df262bd9cb077U, 0xbce818c9bd011d0fU, 0xbc613edf3dae0804U, 0x3c47e268bd841a0bU,
  0x3c3783173da8f183U, 0xbe8ca396bbfd6be1U, 0x3d7ad012bc876337U, 0xbd97dba93dfc906bU,
  0xbd1879f4bda39f8bU, 0xbd483f91bc9b071dU, 0xbda9adafbd253d74U, 0x3d4e21adbd480a01U,
  0xbd20651dbdb8c90dU, 0xbd44ef0abe00b44eU, 0x3e692e5f3d4adb88U, 0x3d8dcd1dbd66d8e0U,
  0x3e327db63dc4c0ffU, 0xbe4130213d76f289U, 0xbdda8250be28442cU, 0x3d803f68bd2a1e1cU,
  0x3e886b2fbcc6a574U, 0x3e41d0eb3d689e73U, 0xbd2c9d88bdf5fbfcU, 0xbd86ae6f3d8d116fU,
  0xbbf63613bcd8c7dfU, 0xbe6ea0cebe15ac56U, 0x3e3a2ceabe078d74U, 0x3ca9be80bb903c9fU,
  0xbde1418cbd64cf68U, 0xbdf56dd33d1d8949U, 0x3e3dc9333cb8d2c6U, 0xbcba98b6bd81513aU,
  0x3dd89b053d923c4cU, 0xbd817dd7bce9f17bU, 0xbde05084bdd78432U, 0xbdd640163c54ba28U,
  0x3db2c2e33c0ae658U, 0xbd2ae09e3c9fff17U, 0xbd577355bde0da4bU, 0xba06dc353de262a2U,
  0xbdea67b63d87cc08U, 0xbe047a1cbd2190fdU, 0xbd0efdc1bd2d1210U, 0xbd1bbfdf3d9efe94U,
  0x3dd0f6c33d8b534aU, 0x3cd801f8bcd5a404U, 0xbcbdb161be3957e9U, 0xbd7dbe603b734d49U,
  0xbd12c3793d532088U, 0xbea2eada3d0634d6U, 0x3e3124b73e018c08U, 0x3dee22713e159298U,
  0x3d86d412bc38a1c3U, 0x3d3532c0bd9af37bU, 0xbc11ad43be079c7cU, 0x3d0c288cbda82492U,
  0x3dd228fcbd7c5242U, 0x3dd3b3a0baa4a2e3U, 0xbd28ecb6bbea07e3U, 0xbdac30bfbd48a0a2U,
  0x3e3803643de0a2a4U, 0x3e0321cebdfbf3feU, 0xbd324b29be241c19U, 0x3cfe20543dacd4e0U,
  0xbd87eb09bde85e21U, 0xbea76e6fbdb6e7b7U, 0x3dcd3da33e6f15b4U, 0xbded38b3bdd8a1acU,
  0x3d9909c4be19e070U, 0xbe5ee399bd92b70cU, 0x3cba97803e3fbd90U, 0xbce0d4a53d36c838U,
  0x3d57a287bd2b3c41U, 0x3c020cbe3d36da19U, 0x3d956e26bcb4dcd1U, 0x3d8e62e83d6e7c6aU,
  0x3dd2c8b03de3d4e6U, 0x3cc83556bd41b217U, 0x3d5b122e3d6bb330U, 0x3b1d91603d128b1aU,
  0xbc93ab5b3d44454dU, 0x3a4d67cfbc9ff00eU, 0xbdcc94243dd4577cU, 0xbde77518bdf0e73aU,
  0xbdf104c13bedcca9U, 0x3d7933b33c18e001U, 0x3d1517b4bcc9b894U, 0x3bba38b6bdb44e0aU,
  0x3d9c807dbda708ddU, 0xbd864efe3d9cd4bfU, 0xbd88ef3f3c093683U, 0xbda3ab0ebc47f748U,
  0xbdbba9b13d994784U, 0xbdc7fceabddfa2d0U, 0xbe02a36dbe61a173U, 0xbc96bb8c3d08ce79U,
  0xbd828ea5bd0bf00cU, 0xbdb87ab2bb82ec83U, 0x3d45ae09bd18076aU, 0x3d7e86193c1ad181U,
  0x3d03cea93dd7ea27U, 0x3daaefb5bdac363eU, 0xbd8aac203e0bb65cU, 0x3d26bc743e38dd15U,
  0xbcb986773cb85adaU, 0xbcb40781bd57f047U, 0x3e4b6870bd16cd18U, 0xbc3238383de0f9e8U,
  0x3de240593e34c789U, 0xbcc5d2fabd2fa669U, 0xbd130feabe0d3a87U, 0x3d8d1be93d885fdfU,
  0xbdd5015d3d3a03d9U, 0xbe9105e2bcd60f50U, 0x3e33fb4c3e0f4199U, 0x3e46e77b3e2059fbU,
  0x3de14e193d8f43dfU, 0x3cf49771bd1e27c1U, 0x3d83d8ab3dcba9bbU, 0x3ddf1eef3de128b3U,
  0x3dd6c416bcbd0b5dU, 0x3e0f09943c8f1697U, 0x3e3581393dd0c522U, 0xbd5bcf2a3dab199aU,
  0x3ddf17533bb275efU, 0x3d5cf2cbbc7038deU, 0xbdc4f9203d886305U, 0xbc175ec03de6db4cU,
  0xbe82bc18bd83148fU, 0xbdfad9e3bc60f3d7U, 0x3e0ff7f0bc8fdadbU, 0xbcabb7223dccf1c5U,
  0xbe4a10e9bd49df32U, 0xbe0c97f43c0a394fU, 0x3e056a1bbd9f4a11U, 0x3d6e7249bc8dfd91U,
  0x3d93e5f7bcca5e2fU, 0xbccefdf1bcfdc683U, 0xbe3f22103a84dbdfU, 0x3cab940fbdf780dfU,
  0x3d60f1b63cde08a9U, 0x3dccdfde3d9b2489U, 0x3df507773d912113U, 0x3c780ed83dcc4379U,
  0xbcbca46b3dc76ce7U, 0xbc96eb55bdef2901U, 0xbda327613beaafa7U, 0x3db15e6bbd1969b2U,
  0xbd0c08f8bd515e9bU, 0xbe75372cbd852037U, 0x3d271a683d14a04bU, 0xbcf9b78dbd303f67U,
  0xbe1abebcbc8877c6U, 0xbcb6c052bd723e59U, 0x3d8713d63de6fcddU, 0xbcbc43213db5be80U,
  0xbca100ffbc8819f1U, 0xbd6cc751bd980693U, 0x3d2b5bb9bdf02fb6U, 0x3d5b71063d8a2213U,
  0x3ca210ec3cb0297fU, 0xbdf778543b2f8a00U, 0x3cf212f93c0af537U, 0x3c8cb5babd1589abU,
  0x3e380b82bd7b9506U, 0xbca2066bbd6c73dfU, 0x3d837886bb5e36a0U, 0x3bdaab913c61c268U,
  0xbde702523d0a11bfU, 0x3d3ee46abce4d011U, 0x3e0efcc63d33fcc1U, 0xbda8ea953d7d3073U,
  0x3da3f78b3b46f7c6U, 0x3ba7d6bc3ca75ca6U, 0xbecda401be86ea2fU, 0x3ce259b4bde06522U,
  0xbe83acf3bcda4630U, 0xbe78c630bd1fbcbeU, 0x3e0a3aed3dbfd178U, 0x3e35a3f43d8c8ef8U,
  0xbd9f5f66bd221f9bU, 0xbe0583b8bdc590efU, 0x3d5a36cbbdb7851bU, 0x3da0800dbd9cac8fU,
  0xbcf36614bd3cf27cU, 0x3d906856bd848da1U, 0xbd3b5db8bdf3ee38U, 0x3c80916cbdee5792U,
  0x395a95fe3e2f92b0U, 0x3c583f4e3db3c1dbU, 0xbd6a7f2a3de2f6bbU, 0x3c0c17183daa77d2U,
  0xbd096fef3d860464U, 0xbe99f0f23c7a0f58U, 0x3df514be3e17be08U, 0x3da9f41b3da0d26bU,
  0xbcb297df3b4f2a61U, 0xbde48e6d3dec97c7U, 0x3daa5b423d291de8U, 0xbd56006fbd677d1aU,
  0x3ca6343a3db4b517U, 0x3dcdc08e3cb0511bU, 0xbdbea5f8bc67bcd4U, 0x3d0a7475bde68c17U,
  0x3db0310bbd83c008U, 0xbd731b7c3d721438U, 0xbdd498b5bda8779cU, 0xbc015f68bcfb9c0aU,
  0xbdfdcc763be3ca76U, 0xbe438c71bd5e8f8aU, 0xbe240e99bad89841U, 0xbe104c403c25d349U,
  0x3be531b7bd03c7ccU, 0xbe57a827bce8a264U, 0x3d081decbc9d0d5fU, 0xbd6465ac3d5e258aU,
  0xbe2542603d486be7U, 0xbe4b508b3cffe917U, 0x3de306f5bd5e20e0U, 0x3d53f59c3dfd8b01U,
  0xbddd10cebe117a0dU, 0xbdba48da3cf700a0U, 0xbe89d68abe176f71U, 0x3da0eebbbdef7f94U,
  0xbe0fa349bdcfbd44U, 0xbd3a1d77bcbceee4U, 0x3deb3cdebb022487U, 0x3d7643cf3d6202e5U,
  0x3d8bef9bbd6183b4U, 0xbdd50ec2bd84928dU, 0xbd3d2d193daad41bU, 0x3bc5bcab3dce0157U,
  0xbc2381a9bcee3304U, 0xbd97c24abd9a4179U, 0xbb06ee6abc0ec249U, 0x3d825b6ebc546630U,
  0x3dfb40743e2c3322U, 0x3dbd88bf3de48f41U, 0xbe95ddabbe29ad57U, 0x3d240f8a3da1c528U,
  0xbe5b66fcbd8bfc13U, 0xbee1eb05bcf7aad9U, 0x3e1004d53e1e6669U, 0x3e4071b73e1ba637U,
  0xbd39aeb2bd57e722U, 0xbd30e072bd6b5437U, 0x3da540963d3a4c3cU, 0x3cd18fa8bd8ffd8dU,
  0x3c12fa7abc411a39U, 0x3e00337e3e06641bU, 0x3d90f1a1bd337740U, 0xbd729feb3be7f35dU,
  0x3d5583df3d10f28dU, 0x3dd84b6c3d8c7b15U, 0xbdb6fbf7be99262dU, 0x3bd98f003d218b7aU,
  0xbd5f89253d12655fU, 0xbde6e5393cceb595U, 0x3e205d4d3e0821aaU, 0x3cd16ecc3bfa1dc5U,
  0x3dec5992be065434U, 0x3a4309dcbbe5f084U, 0x3d9d1c023dd2cb74U, 0x3dc94b933dd54806U,
  0xbd10bc4b3df0a24bU, 0x3d8f8d643dbc4ac7U, 0x3cff577d3c43e753U, 0x3e1abb033e51c770U,
  0x3c1c44bd3d8c76bdU, 0xbd9fc621bd20811eU, 0x3d9625c83e0bd172U, 0xbca00434bc97f21eU,
  0xbdbdce3ebdb6f295U, 0xbdfdbeaebdf1b6a5U, 0xbcd0a4103d8b59d7U, 0x3deecac7bd2aa603U,
  0x3b90a28f3b2a94feU, 0xbe134705bc16d6ddU, 0x3d985292bd3f717cU, 0xbe373bc3bd8f1454U,
  0x3cd0ead3bda2478bU, 0xbcd2ab18bd8558c0U, 0xbdaee47fbd165d78U, 0xbd46aa493c9df2fcU,
  0x3d011a55bcdf7e4fU, 0x3cd0ff21bbed98a2U, 0xbe0bd6ad3d27df53U, 0xbd0f0fe6bceb06abU,
  0xbb943c7dbdee4d87U, 0xbd251798be3bbe82U, 0x3e0650debd167da5U, 0x3d41ee573d77b398U,
  0xbd968abf3df908faU, 0xbe85a5a5be1b6c01U, 0xbcd855a8bc8c993aU, 0xbe3ff85f3c521a2cU,
  0xbe155a32bdd99fa5U, 0x3d8901c13acde688U, 0xbd7ed48abd8a4fbfU, 0xbdc4c5a93d1cb30aU,
  0xbd4ba9113d04c334U, 0xbd29f0babda3b6d4U, 0xbc0dd74bbdabd207U, 0x3c6f7240bcbf17feU,
  0xb964e702bdb4b3d9U, 0xbd330135bd0b3417U, 0xbdd59c233d5071f2U, 0x3d8144413bb7842aU,
  0x3dfc270ebc73a08dU, 0xbdff1bc4bc7e821fU, 0xbbf58bc23d7bcec6U, 0x3cae05b73e0e4fe2U,
  0xbd352c2bbd90e5d3U, 0xbd8d8b8abd9ae3a0U, 0x3c29f1acbcf3fe19U, 0xbda9f38c3d1dac08U,
  0x3d06541cbd9c56b9U, 0x3d941a61bdfeaf86U, 0xbdc8cf41bd8e5302U, 0xbcbb4b80bd940c11U,
  0x3c3ed54b3c4f9ac0U, 0x3c7d3fa4bdbbb05fU, 0xbb80bf513d9c74ecU, 0xbe4ddce33bfd98a2U,
  0x3a88677b3de06f87U, 0xbddc037bbd2209f8U, 0xbda8eecfbdaa0f2dU, 0xbe402e193d3a464fU,
  0xbd5afbd7bd122a2fU, 0x3cbcf788bdbedc61U, 0xbd1b08c2bd70f984U, 0x3d7d4d3b3d079313U,
  0xbdbd58e1bcebcddfU, 0xbc7033193d409814U, 0x3dafb759bce25175U, 0x3d04001abcd92aa6U,
  0x3c31d4423cdd55d8U, 0x3dbe6c763db92c33U, 0xbe178de1bdee6b6aU, 0xbe8766bebde81322U,
  0x3e83d5713e09df22U, 0xbe018009bd276326U, 0xbd06c00abda11473U, 0x3cdee6333e0f7f0fU,
  0xbdd5d9d43d965d84U, 0xbe1aad4a3cc369a0U, 0xbd00c17a3d9b709fU, 0x3ccf7f703dbd2c61U,
  0xbd0e57e9bdbfd5ccU, 0xbdb9323dbd266663U, 0x3dbf7835bcce36e1U, 0x3da575ab3d698484U,
  0x3e284742bd11db96U, 0xbb1b79003d30e832U, 0xbd31a580bc810258U, 0x3c88b0c1be35794eU,
  0x3e508a19bd1dec68U, 0x3e023dda3bdbafafU, 0xbd4191473d9c8f2dU, 0x3ddc75e43e018f43U,
  0x3d8a42653da77dd7U, 0x3d9a0360bcacbd73U, 0x3d5f463e3de4ce24U, 0xbdc2754cbcf43cc8U,
  0xbdb6b4c5bdef822cU, 0x3d5a390fbd60299fU, 0x3d654e1cbd19793aU, 0x3d4989dabc44c5e9U,
  0x3d8107763d7ecb0bU, 0x3d717df93bbd70f4U, 0xbe4c8fb139fc5290U, 0xbeacdef9be15e8b6U,
  0x3ea687743e239188U, 0xbde1cea03d881514U, 0x3d01a0f53b9dfff0U, 0x3d285f3b3e2d0764U,
  0xbe00e1833d8fef78U, 0xbe76feb33d7ecd21U, 0xbe4c83153ddb6055U, 0x3bdbbcc93e51067dU,
  0xbc39b8ba3d7dce24U, 0xbd1f3f073cd16dc7U, 0x3e440861bd923239U, 0xbda45ad8bc99d743U,
  0xbbc42c2c3a9b28d3U, 0xbd972e803d2d2b79U, 0xbd5dc319bd40b92cU, 0xbd7e6e95bda605c2U,
  0x3e47d2c4be02426fU, 0x3c4399623d95eff2U, 0xbd23ded8bddeb13cU, 0x3def2a14bce9b919U,
  0x3e18d4583cb63f7bU, 0x3d67c113bcc6d383U, 0xbd8fd11fbd827315U, 0x3d1024ddbd160be9U,
  0x3d6a48e43cb82f49U, 0xbdc4b9a0bdb616b2U, 0xbe06ff3dbd9561d2U, 0xbd35f2a0bbafd1e8U,
  0xbdb27322bcc72730U, 0xbd45d104bdb6f9f7U, 0x3d87a6dbbc4e273cU, 0x3de9d7783df04193U,
  0x3c3c9bf1bb8281bdU, 0xbdc9795a3cd93bc8U, 0xbc742fd43d3b961aU, 0x3bf7bcd73dba1b17U,
  0xbb495d8fbccf9246U, 0x3d66842c3d4fc6faU, 0x3e4c9c063d760069U, 0xbd654fb03e03f7dfU,
  0xbd0c469c3df1a60fU, 0x3d73a1d23b46ff8fU, 0x3d1526c53dc73c53U, 0x3a80f0003dda93a2U,
  0x3dcbea4fbe05a3a7U, 0xbe08402dbd2cb08aU, 0xbdc51f35bc96bbb4U, 0xbe44c9bcbe17e826U,
  0xbda95b2bbe2fdebbU, 0xbd82d5be3c25cee6U, 0x3e1720533d8c6fedU, 0xbd0744b5bdabf7b6U,
  0xbc5b9dc7be2a6c17U, 0xbd0272f5bb82826cU, 0xbe67176dbd744abeU, 0xbd65389c3cac7d02U,
  0xbdc16c19be88dd02U, 0xbe0a7d18bdc8f7cdU, 0xbeb1b3f8bc87007cU, 0xbd793aa6bda23a9aU,
  0xbe58ce49bd518b18U, 0x3cf41a9ebe831532U, 0xbd5b168bbd83647aU, 0xbd87e2c73dc4dadeU,
  0xbe2069ea3d4e6585U, 0xbe9a2200be6af991U, 0xbe3197b2be4a1f49U, 0xbe9923083d709975U,
  0xbe82beedbd5b0a1fU, 0xbe40206dbdca7c11U, 0xbec8855dbdafe21fU, 0xbde3a7983d20174cU,
  0x3c8f1c89bd700c1aU, 0x3d2733d43c927472U, 0x3e538e883e3e043fU, 0xbcf464a03c2d215fU,
  0x3db99af33e0c83a7U, 0xbd418a7dbd7567c9U, 0xbcdbec393d070c9cU, 0x3ca87f3e3e2eff43U,
  0xbb1997183e46f6b8U, 0xbea0eb3c3d2d516aU, 0xbdbe6704be22a71fU, 0x3d03b2f73bc1f3a3U,
  0xbe620f243e2f5c78U, 0xbd948264bd2b6a58U, 0xbea5a55c3dbc1d42U, 0x3d4ef690bd8b945cU,
  0x3ceb47523d827ccfU, 0xbcbc101ebda13637U, 0xbd2ede3e3e2d7d8eU, 0xbd60b3b6bd172d92U,
  0x3d0ac8dfbe2d3c92U, 0xbdaf3295bdb13808U, 0xbdceb7d0bd803a0dU, 0xbcdb5e273bd2a19cU,
  0xbdd6cd5ebd55cedfU, 0xbd3b4a54bc848696U, 0x3d5bb346bc541695U, 0xbd854682bdc96d6eU,
  0xbb1d00a8bcaab5c6U, 0xbd5179cd3bf3dd99U, 0xbd6fc7c4bdb0a41dU, 0xbdf31cf4bd985918U,
  0xbdbed7febd91a5e4U, 0xbda14b88bbc6352dU, 0x3c958446bd9dc0deU, 0xbb3a3e60bd9c6a95U,
  0xbd9611193c04786bU, 0xbdfa5a00bdb5c69eU, 0x3d094ecebd826b11U, 0xbd0b491c3da542b1U,
  0xbe05b4cd3d313d02U, 0xbeb1cef5bdb36060U, 0xbdf3fd60be0428f2U, 0xbe069665bcc13c62U,
  0xbd14a8013c82d166U, 0x3ca50dd13cfad2ceU, 0xbe3db455bc716340U, 0xbd391a02bd8ac744U,
  0xbd38d8203d62c6bbU, 0x3da9850c3cc43670U, 0x3e0d8d5b3df00ca9U, 0xbcb6588cbda1e1b0U,
  0x3bcdb9623d936b14U, 0x3d85707c3d27838dU, 0x3c96aef7bcf20405U, 0xbe300579bcb6e091U,
  0xbb550ea33d7ee033U, 0xbe5c84e63daede39U, 0x3cd0c0b9be1f949aU, 0xbd8d3341bcb4c40aU,
  0xbe1d9bf73dd92fe9U, 0xbd2c175d3b64cb28U, 0xbe9b8293bce3b168U, 0x3d8f8896bda3a435U,
  0xbd4bcd4a3dd3720aU, 0x3d670b763d0d1918U, 0xbe3d6b3fbe18479dU, 0x3da327e33e08936fU,
  0xbda99b443dacfeeeU, 0x3e2549683c906235U, 0xbd92fda13cbbb3f7U, 0xbdb8b548bd1b3d33U,
  0x3d85d4aa3da2f2e4U, 0xbdfc4c2bbe0a5aafU, 0x3e059d943dca174fU, 0xbd4531ac3dc9c3d5U,
  0x3cb0328fbddbb0acU, 0xb8baf43cbcfc7189U, 0x3da3ad773ddbba6eU, 0x3dc649553e0d3f88U,
  0xbcdc5df0bd0233b3U, 0x3d7a8a1d3dd80835U, 0xbd5cfd41be82cdcfU, 0xbd8861cb3c5737eeU,
  0x3d46f39b3cc93b15U, 0xbb7ac56c3cecaef3U, 0xbdeb9109bdd04aafU, 0xbe2d57e33dbdb08aU,
  0x3da2fc523e5e0390U, 0xbe1770d9bc802602U, 0x3cbbc45a3d910ef7U, 0x3d45b5053e20869aU,
  0x3d1809cc3dbd5eabU, 0xbe0dc8db3cffb26dU, 0x3c33c0e03cf30da0U, 0x3d0ad33e3dc1a4ceU,
  0x3db226133db8cff3U, 0x3d608e6d3d9fbd84U, 0x3e0a7f663d9a4693U, 0x3d1424163e144453U,
  0x3d9861383dff3ea9U, 0xbe5bfd023ceb940eU, 0x3c9709563da1c039U, 0xbd80982fbd337041U,
  0x3e0b8cdf3d7ffa42U, 0xbc724e2f3af806fcU, 0x3d18cdedbc50a09fU, 0x3c1a5fc53d4fb457U,
  0x3d27ebd13cd2f22dU, 0xbd06919abb1b8319U, 0xbcd5c43d3c5a7711U, 0xbd70f2a6bd75e95bU,
  0x3d3b786a3dd479d2U, 0x3ce4409abc7e6e53U, 0xbdb12835bc66b56aU, 0x3bd5ee50bccf731cU,
  0xbe0865d2bc1c639fU, 0xbdde5fddbbaf2d9cU, 0x3c8f68efbbe811baU, 0x3d0ac2bebd0f90c4U,
  0x3c5f6fefbdc41c6eU, 0xbd8c6c4fbd1aaff3U, 0x3dd6dd723de797b5U, 0xbd89e73b3d8a4f12U,
  0xbe0fc26dbdea8720U, 0xbc8f8af43bd9c70eU, 0x3d7bbbd1bda9820eU, 0x3cf48280bc8ae985U,
  0x3cdc216c3d22c9f6U, 0xbd547466bd8350b2U, 0xbd9ef13bbdb0d5b3U, 0xbd6dcb5bbd5e177dU,
  0xbd948cb43dd40d31U, 0xbbbfd73ebd8937b4U, 0x3d25e496bd2577faU, 0xbd44f1a13d90cbb9U,
  0xbcbcfa153c687195U, 0xbe4a10b7bdece321U, 0x3c9320403cd9e2b8U, 0xbe0044ba3d603c5bU,
  0xbc83d2c2bd0a6052U, 0xbde5a5af3d9d8360U, 0xbd0e5ff3bd2263bcU, 0xbb79c6a73d4372e0U,
  0xbc4b2fdfb998be20U, 0xbc779a6a3d15eb38U, 0xbde64338be84c3a8U, 0x3acd32c03c3f6b5aU,
  0xbd5e606cbcc866c4U, 0x3d7e91d83cd39b1eU, 0xba8775ccbd943d5bU, 0xbd889be6bd2eefa7U,
  0x3e0d6df83dfd4c45U, 0xbe3fe3b73d24e8b9U, 0xbdb46808bceb6517U, 0x3d3b8584bcd22e75U,
  0xbe06c2653d998a7bU, 0xbe34da22bc8d1749U, 0xbe0d58463d30aa74U, 0x3cf9c8603cb6782aU,
  0x3cf16995bbe6ef0cU, 0xbca86309bb28f2b0U, 0xbca4bc5abd7c16caU, 0x3da0e3913df71829U,
  0x3c8cf0ff3c84b873U, 0xbdeb0fca3d4f91a7U, 0x3dfdf35abd4bf123U, 0x3e54458a3c3cb1d2U,
  0x3dbf1b0bbe1ef9acU, 0x3dccb593bc9d6a87U, 0x3db1201b3d0774e0U, 0x3ddb239a3da617e2U,
  0x3d10ede73d8e1b66U, 0x3daa5ef53bb3a3c8U, 0xb9c00b06bc39fa96U, 0xbd99732d3dc6c345U,
  0x3d8539e1bdbad08fU, 0xbb726bf53da6e9cdU, 0x3cec86c6bdfae917U, 0xbd5123663d0d8782U,
  0x3da10f77bd0b0bacU, 0xbdcdb3763de69d39U, 0x3dcf4f82bd8ff5d0U, 0x3d8e7c463c12a1ebU,
  0xbc5014babd98fd74U, 0x3d6a4741bcf716cdU, 0xbdd86b31bda15b49U, 0x3e00a712bd79b31aU,
  0x3d89f0b33d0e89e5U, 0x3e14d75abc23e986U, 0xbcb554543d382fb5U, 0xbb998d333dae8241U,
  0xbd3cd7d1be555480U, 0xbdb70fcf3cf14985U, 0x3d4e91583d4c7a99U, 0x3d8e3053bde1be57U,
  0x3d7c7e433d94950fU, 0xbe1a351f3dc02664U, 0x3d850e09bd3aaa23U, 0x3cd353323dcec170U,
  0x3e1695a6bd5f97f3U, 0x3df420eb3c19c86eU, 0xbe1a6d9bbe70cf38U, 0x3c0794bfbe7b5834U,
  0x3d08e7d43deacf51U, 0x3dab4b4abd362c1bU, 0x3d01d242bdb105dcU, 0xbc497907be5e2c35U,
  0xbdfd6735bc6526bdU, 0xbe1a1adbbd155d57U, 0x3bf080a7bd2a623cU, 0xbd05410b3c0a5d93U,
  0xbd7447fcbcfc8b9eU, 0x3d2494c2bdbf0749U, 0xbc5be4f9be48cce7U, 0x3d8fee983cee4372U,
  0xbdab9e55bb15958bU, 0x3d80fedbbe228eb1U, 0xbc9c05203d80f826U, 0xbc1ca8e7bca654d4U,
  0xbe2ed1bbbe369367U, 0xbd80d0bbbd86fb36U, 0x3e15aa41be14699bU, 0x3d2ae4bbbca8a72eU,
  0xbd02a99abdba3bbfU, 0x3b03802fbe244722U, 0xbd39cb04bd92d5bdU, 0xbc34cce8bdf48bb6U,
  0xbd6a39c73bbd2b87U, 0x3deeed39bd8b70ebU, 0x3d306dd0bd96a41bU, 0x3d898120bd888b1fU,
  0xbdaffe21bcde5b3cU, 0x3dc11e713cbd6d49U, 0xbe09bc61bd87d245U, 0xbca0de46bc52d80fU,
  0x3d69ff5abdbf39adU, 0xbc008aa0bd6843ceU, 0x3e3ff628bda0e848U, 0xbd867a103d4a10e7U,
  0xbe27209cbd11842fU, 0xbca6eb9dbe13d475U, 0xbd0bc35ebd87b232U, 0xbcce010cbe167504U,
  0xbd49629dbc53abcdU, 0x3e806889bdc39d84U, 0xbe000257bdcbae57U, 0xbe23e44dbd89d26fU,
  0xbe24e37b3d2fb929U, 0xbc0a7c26bd5be627U, 0x3d85e6433e1e78f4U, 0xbd8631e53e2b3318U,
  0xbda27c36be0b4377U, 0xbe606c29bcb68c2fU, 0x3e46828dbdac55adU, 0x3ce342d63e372b13U,
  0x3e08a7da3abb2552U, 0x3d6c52e33cb57748U, 0x3e05eab93dc9045bU, 0xbce0342c3dcb3f3bU,
  0x3e0bf5043cd9ceecU, 0x391b3e3a3e0cf062U, 0x3d74c76d3d834bacU, 0x3d5fdadc3d71b1d4U,
  0x3dbb04953d2da050U, 0xbb8da7eb3dd22757U, 0x3df10fb63c3e4fc1U, 0x3dbfba703d5edb46U,
  0x3e22070c3dee8869U, 0x3df77b713dd2f9ffU, 0xbd4cd9843dcaa87eU, 0x3c6c719b3d6b7a04U,
  0x3df38beebd8044efU, 0x3d03f79ebcf59978U, 0x3e3cb8da3d8e907dU, 0x3d959ae93db1651bU,
  0x3e2fa6e73debff0dU, 0xbdc0a7c43df70a2cU, 0x3e3801a03d96beb3U, 0x3e0772ee3d93002fU,
  0x3de2fc4c3cbd7e6dU, 0x3c0448db3e1dbd69U, 0xbb128dcbbd7a4e50U, 0x3da66c0abb4c857fU,
  0x3deaf05b3dbb02acU, 0x3e208f463d879220U, 0xbd0cf6943d568ba8U, 0xbd10e0b0bd25c9d7U,
  0xbcc6a0d7bc773d52U, 0xbdecfec4bd124df1U, 0x3e87ce0c3ed91eb1U, 0xbd9e113bbdff96ccU,
  0x3e3cacb2bdd261b5U, 0xbd5e66723be3b044U, 0xbdfef9273d99f800U, 0xbea183a4be3c36b1U,
  0xbd01aca3bdd74ad8U, 0x38ef67ee3da456f1U, 0xbc52f2ebbdc1f156U, 0xbc8abb94be5f2bdfU,
  0xbd23c4853c7aebc3U, 0x3d840a23bd97f40aU, 0xbd391688bdcf9f3cU, 0xbcd84ac5be2de8e4U,
  0xbd9db08dbdba412cU, 0xbcff02933c93cd0aU, 0xbd0682dbbe0bb6d7U, 0x3d1fe47abde0f0f9U,
  0xbd0d840abe11c4afU, 0xbbba4ee5bc469e92U, 0x3e14ab9fbccbb44cU, 0x3e1fd5a83d84a19dU,
  0xbe4f3d9bbe2e7d2eU, 0x3e2e2cb1b944e741U, 0x3d137097bd533d4aU, 0x3cc28b93be0f2f2aU,
  0x3dd5166abbaf96d0U, 0x3c8475053c8bf552U, 0x3e589122be0c42aaU, 0xbdda018fbe1a90b0U,
  0xbd0d587fbd18d5c6U, 0xbe1d6068be0b7fe3U, 0xbd8131ee3d897d95U, 0xbd8a37abbc35dd45U,
  0xbd450e0fbe02528aU, 0xbbca2e43bdb030a7U, 0xbd3df493bd7ebf0bU, 0xbd3a9f1fbc0ea81fU,
  0xbe1e352bbd74a18aU, 0x3c7205e7bd1615b1U, 0xbe239bcfbe335462U, 0xbc9a962cbde718a4U,
  0xbd86e6fcbddcd0b5U, 0x3e1d6ef0bdf4bfefU, 0x3da3653ebe58dcdfU, 0xbdee2f5abdeb2976U,
  0xbc974289bc486d42U, 0xbd5c0b91bd959ba8U, 0xbe70b9233df8c5e1U, 0x3c3f9c80be082e50U,
  0xbdf50a79bd0d0dedU, 0x3e3a9d24be64216dU, 0xbdecdf97bdcf361eU, 0xbe8d9c37bdc0b69bU,
  0xbe12bb733d12cd88U, 0xbde45d0bbe18155dU, 0x3a7a49a0bde603d1U, 0xbe2ccb99bda6921aU,
  0xbde06f5ebd2b92e0U, 0xbe2d7481bcd28778U, 0xbe8cbf043d25243dU, 0x3be75ce3bba0b930U,
  0xbdbb323c3d45ff66U, 0xbd0a0f36bd600b9fU, 0xbd3c9370bbbe54ebU, 0x3c8b8d943d219342U,
  0xbd9d4d17bd9633f8U, 0xbd85f9a7be20dfc5U, 0x3ba0fba6bcc2ece7U, 0xbd1f55a0bd8f7d67U,
  0x3d9bc9eabe40bf33U, 0xbd74126fbe05cc64U, 0x3d22c0a33cdcada3U, 0xbde354863d2378aeU,
  0xbe316c22be1c3a4bU, 0xbe373f06bd545e92U, 0x3e1621463beb5839U, 0x3d33685b3dce1532U,
  0xbe408b8dbdf02be6U, 0xbe3ebc62be4c12fdU, 0xbd4dbd79be079353U, 0xbd887e36bde357b8U,
  0xbe64accabe148d52U, 0x3cf1af2fbe0967c6U, 0xbde7c2f6be0c5e12U, 0xbe04c50dbcde9d37U,
  0xbe1457ccbd31af6cU, 0xbda3681fbe103ae9U, 0xbe1aee04bdf04dddU, 0xbe0eb6e5bc4bfc3dU,
  0xbe55abb0bbeb24e8U, 0xbde4d8a6be152dd3U, 0xbe469dc9be1dab11U, 0xbdfe109dbd5f68ecU,
  0x3d2d8ffabe41c48fU, 0xbe085fe03c24e253U, 0xbe9d407fbe3b4f9cU, 0x3d6ccfd2be10b70eU,
  0xbe8b423d3a310d38U, 0xbdb7d2983d2c5dafU, 0xbc181f113cb8a122U, 0x3e195e023dae7509U,
  0xbddc9d7f3b60e095U, 0xbe075837bcade7fcU, 0x3ca504a1be045be2U, 0xbd120c6dbe48d42bU,
  0xbd5d67d83d3b6a97U, 0xbd3a65bebdc572a4U, 0xbdd5c9dfbdf85291U, 0x3c28f0b3bde65e51U,
  0x3e3b2aa63db28740U, 0xba09cbc03dd35678U, 0xbd96aa62bdbf9d1dU, 0x3d9964b33d85c22dU,
  0xbd2d9b8d3c2f66b6U, 0xbd947d553d526b7fU, 0x3e1e39d73b0c459cU, 0x3dc553173ddee810U,
  0xbbbc6e013d73335bU, 0x3d3d792d3dfa195bU, 0x3d82214cbda2cdf8U, 0x3cf5f2123d1515f9U,
  0x3da341093e03da3aU, 0x3e3e882e3cfcc020U, 0xbcfd82753d91ee7bU, 0xbd0bb8393cbbd103U,
  0x3cf75221bda00a5fU, 0xbc77f9303e1108f1U, 0x3e56d3c13d932c6dU, 0xbba092d03dadd38dU,
  0x3d3a807e3df2e05dU, 0xbe1f36b13e050a0fU, 0x3d3e8162bd952d48U, 0x3d1eb17a3e344d68U,
  0x3d5d2ca8bb631c83U, 0xbb2f190c3e2bfb6cU, 0xbd80d06ebde5ef93U, 0x3d6482debddb0658U,
  0x3c74fe833e04662bU, 0x3dc305ac3dedf46bU, 0x3c23eba93cb17558U, 0xbbcb2923bd39b742U,
  0xbdbd284dbe3ae94dU, 0xbe3ead123d661c17U, 0x3e8733463e9d4e7fU, 0x3d329cfabe0bb768U,
  0x3e362306bddb7677U, 0xbd414bcc3cccd5aeU, 0xbdf3c3e3bc6be441U, 0xbec2b3c5be66c6e9U,
  0xbc958679be575afcU, 0x3dd7ebb83e09be9aU, 0xbc623120bebb4a55U, 0x3cbd0d8fbe8df61bU,
  0x3d357065bd2fa730U, 0xbdebbf74bcf95d89U, 0xbd08afadbe848a41U, 0xbd7a638ebec5e793U,
  0xbdd647d8be280fb5U, 0xbdf601c4be4eb765U, 0xbd9c9edabe1f3720U, 0xbda5b308be8d8f89U,
  0xbe211f43be4ec508U, 0x3c758d52bd492fdfU, 0x3db6d2febdd27a29U, 0x3dd717c83e0824a6U,
  0xbea07db0be2d2023U, 0x3d8cc1203a14e1f2U, 0xbdf0ce4d3c3b41bcU, 0xbd88408abdf30ad1U,
  0x3cc8709ebc819735U, 0x3e577e55be1b4883U, 0x3e784dc7be473c9aU, 0xbe239f42be39548cU,
  0xbde3b19cbe061ce1U, 0xbe1afcb8bdb14155U, 0x3da8889b3dec04d9U, 0xbda3fab0be92496bU,
  0x3dbf6f3bbe30faa1U, 0x3d6a68b13d93aca7U, 0xbdebba27be6a8686U, 0xbe18d113be82900dU,
  0xbd38c4a3be1373d7U, 0x3dc3ff8a3cf65c42U, 0xbe459f93bdd599c8U, 0xbd171bb8bccd1436U,
  0x3c5cf87dbd8aa296U, 0xbc7ccd4abddf4e67U, 0x3df65343beb2efb8U, 0xbe50a53c3d064735U,
  0xbdeff923be0680e1U, 0xbdd2c886bd8dcd16U, 0xbe7651b23d3abd39U, 0x3c769f68bdf4fce5U,
  0xbd89263ebd86609bU, 0x3e4afcd8be73d89fU, 0xbdd951513b70d51eU, 0xbea21f7bbe0a850dU,
  0x3d9214013e62481aU, 0xbe42f544be2fd7c0U, 0xbe3e7420bd61574eU, 0xbe8c363b3d7555c5U,
  0xbdd11ea33cc61be0U, 0xbe7f0ab0bcef8ceaU, 0xbe54a0d1bd1d3fb7U, 0xbe21ade03e66edf8U,
  0xbe864305be50a976U, 0xbe51fa54be72a84dU, 0xbe2ca51fbdca4e7cU, 0xbcbaf7ccbe0eff43U,
  0xbe69e366be156f92U, 0x3d30171abe6e824dU, 0xbd6822b2be7070bbU, 0xbe933124be5386d4U,
  0xbce2f237bd8e1b43U, 0xbdbfc0e7be539719U, 0xbe94d454be0c715bU, 0xbe14f804bd33626cU,
  0xbe419f53be38d8e6U, 0xbe1a8f2ebddd61a1U, 0x3c869399be0b325aU, 0xbde664413cbb9416U,
  0xbc586eb9be5ab0b4U, 0x3d7ffa30bdc97a51U, 0xbe0b445cbe141366U, 0x3c1e2b28bd8e8376U,
  0xbe3dcd503d084293U, 0x3decee3ebe26e06bU, 0xbe14e4dd3da7c495U, 0xbe33cd6fbd8511f0U,
  0x3e00f9eb39232e7dU, 0xbe4c8727be86c40bU, 0xbdfc89edbcf5babbU, 0xbe099325bd90d809U,
  0xbdcf32f1bd662059U, 0xbe395bf8bdf4d599U, 0xbe87a3c93daac60aU, 0xbe19854c3d4592b4U,
  0x3daa3021bc235b06U, 0x3ae5af6b3db9740cU, 0x3b737d5fbe352fdcU, 0x3cd06a803e09403dU,
  0xbb7f891c3e02068bU, 0x3d86f3323c7064b6U, 0x3df5ee6abc224ad8U, 0x3df273143e0e85d2U,
  0x3e1484923d6d0accU, 0xbd944023bc8cbb7dU, 0x3cebb16bbbd6485fU, 0x3e2b636d3e0865c6U,
  0x3db820693d496578U, 0x3dc35b5e3a8d0751U, 0xbe6a97593dfc392dU, 0x3ce037683d1680b4U,
  0xbd89cb883d97f57dU, 0x3d16c8fabd5515dfU, 0x3db7baa8bdbbffbaU, 0xbca3d2a0bd1a72b1U,
  0x3e1e10013d796b27U, 0xbc2761eabcacbdddU, 0xbe45d35bbcb2d88aU, 0xbe64d704bd95a051U,
  0x3c1033773dd8f8e8U, 0xbd383dbd3d014a74U, 0xbcd3a151bdab529bU, 0x3c1e1326bd80584dU,
  0xbd913a36bd0afbbcU, 0xbe64601bbd981484U, 0x3c9ff01f3d19c2c7U, 0x3c920c2dbccd8744U,
  0x3c97aa8cbc8c5888U, 0x3d7754493d674f46U, 0x3b129f2c3c5ee42fU, 0x3da93a33bddfdbfeU,
  0x3cf09fc9bc25bb4bU, 0x3c57c7ddbdaa1f7fU, 0xbe373f103c8c69ffU, 0xbe1d6259be69636eU,
  0xbc90d92bbd891120U, 0xbc0f137fbd92e5b9U, 0x3d9d1a95bd6f48dfU, 0xbd9234ffbdaa3968U,
  0xbd7c68a03c84b188U, 0xbce8f0bf3c832eabU, 0x3df5524c3c24f3faU, 0x3dcd23e03cf1e927U,
  0xbdef14e63da947a6U, 0xbdb673ddbbe2b5fcU, 0x3dac711fbd1534b6U, 0x3cd6bce03d3145b3U,
  0xbd9e009c3cbf12e5U, 0x3d6f6f42be05be95U, 0xbea375393d23e599U, 0xbec0e2d1be95f58dU,
  0xbdca0ea6bdc3c9edU, 0xbcbdff22bd78830fU, 0xbce7a5e73c80cacdU, 0xbe1a965a3d34ff9bU,
  0xbe015576be04730dU, 0xbe003c3abd1e95b2U, 0x3d7d0dbbbcb7c240U, 0xbd7fc3b63d9baa26U,
  0x3d59ad4f3de60fb3U, 0x3dd757973dea49d9U, 0xbdd92f5bbe46a03fU, 0x3cd8a4e03d86c86dU,
  0x3cf041c53d2d6bb3U, 0xbd84920b3d59e882U, 0xbc1579403b7abe74U, 0xbded2f04bd0bf312U,
  0x3e2dd7c4bddf7997U, 0xbcb9a9bbbcd76eafU, 0x3d0c6b0d3d09f8e8U, 0x3e04d972bbba18cfU,
  0x3ddab4bf3d01d8d4U, 0x3d36523b3d7fb6b9U, 0xbdd9901b3d291094U, 0x3dd857db3dc6bc52U,
  0x3d84e0d0bd4b73d4U, 0x3d9450be3d24ae84U, 0xbdda549fbe41b2b5U, 0x3c4698683dc7a6cbU,
  0xbd07265cbd446719U, 0xbd8845debd5f302dU, 0x3d27e9453d551d7bU, 0xbd30a51dbdb48854U,
  0x3e027023be522bf3U, 0xbd318b8bbcc08985U, 0x3d9889ffbd541d57U, 0x3d556ca1bcb239c1U,
  0x3d48eab13d9a253cU, 0xbc03d195bd6bc7f1U, 0x3d0b67343d8ccd55U, 0x3be2cdf53de2c50aU,
  0x3ddba932bbe0824fU, 0x3d1e3c54bd0a10afU, 0xba8e5a11bd8c8778U, 0x3c9eadd43de8066eU,
  0xbcf0415fba8af7c7U, 0xbb711ba0bc731d36U, 0xbd30f2ba3da4efeaU, 0xbdb08e5abd9b7675U,
  0x3d41a16dbd83d5a3U, 0xbe07cf8fbd1527beU, 0x3c90deeb3d60d24fU, 0x3da70fdf3d46b75cU,
  0xbc4fc98d3dcbc224U, 0x3da65fcbbcd25bf3U, 0xbd1aa7b43de25f0fU, 0xba8a878e3ddafa68U,
  0xbc1e0e88be2a5e56U, 0xbd30bdce3d9ae029U, 0x3c836ddabe0261f6U, 0x3da79af1be2216f7U,
  0x3c881519bdd96e75U, 0x3c11ed793db04cc8U, 0x3c91a6f0bddc7a23U, 0xbd2e7fdfbd730b63U,
  0xbe15303bbe6be2e4U, 0x3e5f292a3b436453U, 0xbce12e6bbe4ecd65U, 0x3cc02fafbe254108U,
  0xbd02f16e3c2a5963U, 0x3d2791e8bd7d6a22U, 0x3dd92f37be141efbU, 0x3b6fd91abdc95c21U,
  0xbdb02e15bdb5aa62U, 0x3d39e6d4bc2cd902U, 0xbc590aecbd5925f3U, 0xba5e5280be1a28fdU,
  0x3df65dd83c0d2b4fU, 0xbcbf71c83c6dfd49U, 0x3c8eedbbbd9f4020U, 0xbdbd3181bd933860U,
  0xbd4aac47bdca1fedU, 0x3d94a0f6bd440082U, 0x3ce793b2bd7cf959U, 0xbd2e074abd132b24U,
  0x3d87a67e3d408ca6U, 0x3e16ca803c62cd13U, 0xba2862f5be0703f7U, 0xbd2da30dbe453ea3U,
  0xbd719f13bdc8a954U, 0x3d48e700bd79a285U, 0x3d9b6050be1d5b3cU, 0x3d70649abd600354U,
  0xbd609bf83bde448dU, 0xbe07277d3d3f0588U, 0x3df6e820bd4c154eU, 0x3c89c4f33c9cb0f4U,
  0xbd02548c3cfe8147U, 0x3d7355153d2eb4fbU, 0xbbf32bcbbd9490b1U, 0xbcda1588bdbe0ecdU,
  0x3d74a1cf3db113c6U, 0x3d8c40893c9bd8faU, 0x3de50deebd1bd823U, 0xbcfd9094bde2d263U,
  0x3d3d0f0abdeee968U, 0xbda41a91bd8bf9c7U, 0x3da535f23b86163cU, 0xbd6e1dd63c37713aU,
  0x3caeb750bd8e01b1U, 0xbda81f193d035aafU, 0xbd80e36abcc28d4eU, 0x3dde51e3bc854a89U,
  0x3d579108be1e2ad3U, 0x3dbb059239a353c4U, 0xbc8e34a4bdd58adcU, 0x3d620a9fbde44448U,
  0x3e52a4833d2148e2U, 0x3d892d103c37db19U, 0x3c01f039be012a41U, 0xbc8ddc73be3f1c21U,
  0xbd0b0bd7bd99171fU, 0xbdb350ef3d74b48bU, 0x3d1d4c42bc979796U, 0xbcdd5e0c3da6a0dcU,
  0x3e0b700cbd8782f1U, 0xbd9b95ac3de3ccf6U, 0x3daa65f63d51eeb3U, 0x3e257c393c37b547U,
  0xbb2d2d313c5761beU, 0x3de17e7c3dc1e131U, 0xbdf6bc54bd198c31U, 0xbab21a17be01cd97U,
  0x3e34347b3d57f9e9U, 0x3db2ee19bce377dfU, 0xbd9dc848bd50623aU, 0xbd8c7e54be1c59adU,
  0xbd8fbbd6be1b4bd2U, 0xbb0534e5bcdbe329U, 0x3de631833dd64a96U, 0x3d4de422bd745e1eU,
  0x3d4f31c03d3b6fbdU, 0xbe0b76703d895330U, 0xbcd6c8d1bdce9ce9U, 0x3e3b2408bc92f214U,
  0xbc126a8abe427956U, 0x3df7905fbc98b4faU, 0xbdf91f6bbe227252U, 0xbc7b25c8be4bb77dU,
  0x3d81e33f3d915355U, 0xbceceb76bdd80d01U, 0xbafdaf32bcea9509U, 0xbccb102dbe919b22U,
  0xbdb91b453db243c3U, 0x3bcd4261bd481c05U, 0xbe391fafbe2010c6U, 0x3cfdbd6cbcfbfea0U,
  0xbd41f42bbdd9a9e3U, 0x3da2e5cb3b66ceb8U, 0xbd98c6da3d22a773U, 0xbe269893bdcd40efU,
  0xbd040681bbf4c413U, 0xbd5c9af9be00efbfU, 0x3d8930b73e20e16dU, 0xb9e53b4a3de01b43U,
  0xbd82ed76bd9f2636U, 0xbe655180bd9362faU, 0x3e9037d7bca82839U, 0x3d2a5df03e2748e2U,
  0x3d133362bc12ee23U, 0xbda8fb7f3b46e9cdU, 0xbe081a36be45b10dU, 0x3b84c880bcfa5d88U,
  0xbe8af1b9bbf281d8U, 0x3dfc2b94be1c8bebU, 0xbe08cc1e3d57864aU, 0x3d94d68cbe2d1471U,
  0x3d284f3e3d0bc9d6U, 0xbd7e6a19be1e1172U, 0xbc0f3e8d3e1d76aeU, 0xbe0f90ef3cb9d4edU,
  0xbddf660cbda1dc4dU, 0xbd6f5b82bcf0e3aeU, 0x3ea206013de8ea7dU, 0xbda666253e20345fU,
  0xbb544c373cac1879U, 0x3bb4bbe9bdbdaf66U, 0xbe084759bd27eb49U, 0x3d8a11adbd4acfb4U,
  0xbe6acbd9bc8c1494U, 0x3d1dd23fbde5f914U, 0x3d0cdd043d09f159U, 0xbafa068cbe120da2U,
  0xbe1145f3be075372U, 0xbc26ea50be20b559U, 0x3deda5213e21433bU, 0xbe5714013b437c05U,
  0xbdd40568bdffa8a1U, 0xbd24cbc9bd9533aaU, 0x3e656df23cebeff3U, 0xbdbae4c73ba7d32dU,
  0x3cc35fbe3db4ac3bU, 0xbcad50cb3d9ee6e8U, 0x3e2675113ce62124U, 0x3da1bc633da23f1cU,
  0x3dc12bdb3dbd9b6eU, 0xbd6fe9f33d8f1ce5U, 0x3d50158d3d8460e9U, 0xbd1580cfbca93c65U,
  0x3dc019f3bde35144U, 0x3e0e98363d0956ccU, 0x3d8fd0e63cd08396U, 0x3e32868f3dfce401U,
  0x3e23e8383db1e7e8U, 0x3e0a4affbca83e95U, 0xbd27300f3d7c5595U, 0x3dd58a5bbd33f0f3U,
  0x3db342c73d40ab8dU, 0x3b47df05bd18b314U, 0xbe0ba07fbdda51ffU, 0xbd54ababbd926512U,
  0xbd04f26a3d237c5fU, 0xbdea7145bd114548U, 0x3df9ab1a3d8d7be7U, 0x3e4a72143d49835eU,
  0x3cfc3f26bdbfcfe1U, 0xbd4d49903b83c344U, 0xbbff230b3d1347b6U, 0x3cd7c7d13cd2d61fU,
